unsigned char my_mean_mfcc_classifier_tflite[] = {
  0x1c, 0x00, 0x00, 0x00, 0x54, 0x46, 0x4c, 0x33, 0x14, 0x00, 0x20, 0x00,
  0x1c, 0x00, 0x18, 0x00, 0x14, 0x00, 0x10, 0x00, 0x0c, 0x00, 0x00, 0x00,
  0x08, 0x00, 0x04, 0x00, 0x14, 0x00, 0x00, 0x00, 0x1c, 0x00, 0x00, 0x00,
  0x98, 0x00, 0x00, 0x00, 0x20, 0x01, 0x00, 0x00, 0x58, 0x1b, 0x00, 0x00,
  0x68, 0x1b, 0x00, 0x00, 0xd8, 0x23, 0x00, 0x00, 0x03, 0x00, 0x00, 0x00,
  0x01, 0x00, 0x00, 0x00, 0x10, 0x00, 0x00, 0x00, 0x00, 0x00, 0x0a, 0x00,
  0x10, 0x00, 0x0c, 0x00, 0x08, 0x00, 0x04, 0x00, 0x0a, 0x00, 0x00, 0x00,
  0x0c, 0x00, 0x00, 0x00, 0x1c, 0x00, 0x00, 0x00, 0x3c, 0x00, 0x00, 0x00,
  0x0f, 0x00, 0x00, 0x00, 0x73, 0x65, 0x72, 0x76, 0x69, 0x6e, 0x67, 0x5f,
  0x64, 0x65, 0x66, 0x61, 0x75, 0x6c, 0x74, 0x00, 0x01, 0x00, 0x00, 0x00,
  0x04, 0x00, 0x00, 0x00, 0x60, 0xff, 0xff, 0xff, 0x10, 0x00, 0x00, 0x00,
  0x04, 0x00, 0x00, 0x00, 0x08, 0x00, 0x00, 0x00, 0x6f, 0x75, 0x74, 0x70,
  0x75, 0x74, 0x5f, 0x30, 0x00, 0x00, 0x00, 0x00, 0x01, 0x00, 0x00, 0x00,
  0x04, 0x00, 0x00, 0x00, 0x86, 0xe4, 0xff, 0xff, 0x04, 0x00, 0x00, 0x00,
  0x0e, 0x00, 0x00, 0x00, 0x6b, 0x65, 0x72, 0x61, 0x73, 0x5f, 0x74, 0x65,
  0x6e, 0x73, 0x6f, 0x72, 0x5f, 0x36, 0x00, 0x00, 0x03, 0x00, 0x00, 0x00,
  0x64, 0x00, 0x00, 0x00, 0x2c, 0x00, 0x00, 0x00, 0x04, 0x00, 0x00, 0x00,
  0xb0, 0xff, 0xff, 0xff, 0x14, 0x00, 0x00, 0x00, 0x04, 0x00, 0x00, 0x00,
  0x13, 0x00, 0x00, 0x00, 0x43, 0x4f, 0x4e, 0x56, 0x45, 0x52, 0x53, 0x49,
  0x4f, 0x4e, 0x5f, 0x4d, 0x45, 0x54, 0x41, 0x44, 0x41, 0x54, 0x41, 0x00,
  0xd4, 0xff, 0xff, 0xff, 0x13, 0x00, 0x00, 0x00, 0x04, 0x00, 0x00, 0x00,
  0x19, 0x00, 0x00, 0x00, 0x72, 0x65, 0x64, 0x75, 0x63, 0x65, 0x64, 0x5f,
  0x70, 0x72, 0x65, 0x63, 0x69, 0x73, 0x69, 0x6f, 0x6e, 0x5f, 0x73, 0x75,
  0x70, 0x70, 0x6f, 0x72, 0x74, 0x00, 0x00, 0x00, 0x08, 0x00, 0x0c, 0x00,
  0x08, 0x00, 0x04, 0x00, 0x08, 0x00, 0x00, 0x00, 0x12, 0x00, 0x00, 0x00,
  0x04, 0x00, 0x00, 0x00, 0x13, 0x00, 0x00, 0x00, 0x6d, 0x69, 0x6e, 0x5f,
  0x72, 0x75, 0x6e, 0x74, 0x69, 0x6d, 0x65, 0x5f, 0x76, 0x65, 0x72, 0x73,
  0x69, 0x6f, 0x6e, 0x00, 0x15, 0x00, 0x00, 0x00, 0x34, 0x1a, 0x00, 0x00,
  0x2c, 0x1a, 0x00, 0x00, 0x9c, 0x13, 0x00, 0x00, 0x0c, 0x13, 0x00, 0x00,
  0xf0, 0x12, 0x00, 0x00, 0x60, 0x11, 0x00, 0x00, 0x10, 0x11, 0x00, 0x00,
  0x00, 0x01, 0x00, 0x00, 0xf8, 0x00, 0x00, 0x00, 0xf0, 0x00, 0x00, 0x00,
  0xe8, 0x00, 0x00, 0x00, 0xe0, 0x00, 0x00, 0x00, 0xd8, 0x00, 0x00, 0x00,
  0xd0, 0x00, 0x00, 0x00, 0xc8, 0x00, 0x00, 0x00, 0xc0, 0x00, 0x00, 0x00,
  0xb8, 0x00, 0x00, 0x00, 0xb0, 0x00, 0x00, 0x00, 0x90, 0x00, 0x00, 0x00,
  0x74, 0x00, 0x00, 0x00, 0x04, 0x00, 0x00, 0x00, 0x86, 0xe5, 0xff, 0xff,
  0x04, 0x00, 0x00, 0x00, 0x60, 0x00, 0x00, 0x00, 0x0c, 0x00, 0x00, 0x00,
  0x08, 0x00, 0x0e, 0x00, 0x08, 0x00, 0x04, 0x00, 0x08, 0x00, 0x00, 0x00,
  0x10, 0x00, 0x00, 0x00, 0x28, 0x00, 0x00, 0x00, 0x00, 0x00, 0x06, 0x00,
  0x08, 0x00, 0x04, 0x00, 0x06, 0x00, 0x00, 0x00, 0x04, 0x00, 0x00, 0x00,
  0x01, 0x00, 0x00, 0x00, 0xe9, 0x03, 0x00, 0x00, 0x0c, 0x00, 0x18, 0x00,
  0x14, 0x00, 0x10, 0x00, 0x0c, 0x00, 0x04, 0x00, 0x0c, 0x00, 0x00, 0x00,
  0x36, 0x57, 0x0e, 0xc0, 0x6c, 0x86, 0x91, 0xa9, 0x01, 0x00, 0x00, 0x00,
  0x02, 0x00, 0x00, 0x00, 0x04, 0x00, 0x00, 0x00, 0x06, 0x00, 0x00, 0x00,
  0x32, 0x2e, 0x31, 0x39, 0x2e, 0x30, 0x00, 0x00, 0xf2, 0xe5, 0xff, 0xff,
  0x04, 0x00, 0x00, 0x00, 0x0b, 0x00, 0x00, 0x00, 0x66, 0x70, 0x31, 0x36,
  0x61, 0x63, 0x63, 0x66, 0x70, 0x33, 0x32, 0x00, 0x0a, 0xe6, 0xff, 0xff,
  0x04, 0x00, 0x00, 0x00, 0x10, 0x00, 0x00, 0x00, 0x31, 0x2e, 0x31, 0x35,
  0x2e, 0x30, 0x00, 0x00, 0x00, 0x00, 0x00, 0x00, 0x00, 0x00, 0x00, 0x00,
  0x70, 0xde, 0xff, 0xff, 0x74, 0xde, 0xff, 0xff, 0x78, 0xde, 0xff, 0xff,
  0x7c, 0xde, 0xff, 0xff, 0x80, 0xde, 0xff, 0xff, 0x84, 0xde, 0xff, 0xff,
  0x88, 0xde, 0xff, 0xff, 0x8c, 0xde, 0xff, 0xff, 0x90, 0xde, 0xff, 0xff,
  0x94, 0xde, 0xff, 0xff, 0x4e, 0xe6, 0xff, 0xff, 0x04, 0x00, 0x00, 0x00,
  0x00, 0x10, 0x00, 0x00, 0xb8, 0x2d, 0x17, 0xc4, 0x97, 0xa1, 0x21, 0xc9,
  0x69, 0xca, 0x7a, 0xae, 0x6d, 0x2e, 0x73, 0xb2, 0x0b, 0x24, 0xce, 0xc8,
  0x07, 0x45, 0x15, 0xbf, 0xa8, 0x37, 0x78, 0x22, 0x4f, 0x2f, 0x2c, 0x22,
  0x29, 0x16, 0x06, 0x48, 0x30, 0x31, 0x22, 0x47, 0x07, 0xad, 0x49, 0x39,
  0xb8, 0xc7, 0x9c, 0xb3, 0x0c, 0xc9, 0xab, 0xc9, 0x82, 0xbe, 0xa2, 0x33,
  0xa0, 0xbd, 0x30, 0x47, 0x82, 0x44, 0x50, 0xa8, 0xc7, 0x37, 0x82, 0xc1,
  0xce, 0xa4, 0x0b, 0xac, 0x0e, 0xc8, 0xd9, 0x29, 0xf7, 0xc2, 0xde, 0x2f,
  0xaf, 0xc5, 0x05, 0xb0, 0xe2, 0x2a, 0x78, 0xb9, 0x2c, 0xb4, 0x75, 0x24,
  0x7d, 0x4a, 0x73, 0xc9, 0x5d, 0x36, 0x50, 0xc0, 0xd2, 0xbd, 0xd9, 0x40,
  0xef, 0xa9, 0xb4, 0x3c, 0x2c, 0x44, 0xb3, 0x48, 0xa8, 0x9a, 0x4a, 0xc9,
  0xb8, 0x49, 0xaa, 0x26, 0x28, 0x96, 0xd9, 0x9f, 0xb7, 0x49, 0x6e, 0x2c,
  0xc4, 0xa9, 0x50, 0x38, 0x0a, 0xac, 0xcc, 0x3c, 0x31, 0x44, 0x01, 0x28,
  0x49, 0x29, 0x52, 0xad, 0x79, 0xad, 0x9f, 0xc4, 0xbf, 0x34, 0x70, 0x46,
  0xc4, 0x44, 0x00, 0x31, 0xb6, 0x26, 0x92, 0xa1, 0xa4, 0x1f, 0xeb, 0xc5,
  0x27, 0xad, 0xcd, 0xbd, 0x0f, 0x30, 0xd0, 0x3c, 0x68, 0xc9, 0xcf, 0x2e,
  0x43, 0x40, 0x11, 0x21, 0x47, 0xc7, 0xde, 0xb6, 0xf6, 0xc2, 0xf1, 0x40,
  0x0f, 0x44, 0x14, 0x2b, 0xac, 0xc1, 0x74, 0xb7, 0x6c, 0xa7, 0x7c, 0x34,
  0x0a, 0xc2, 0x26, 0xa6, 0x26, 0x41, 0xc7, 0xaf, 0x79, 0xb5, 0xdd, 0xad,
  0x90, 0x28, 0xd5, 0xc4, 0xf6, 0xb1, 0x9b, 0xa1, 0xa8, 0x45, 0x6d, 0xc9,
  0x7b, 0xc7, 0x85, 0xc5, 0x2c, 0xc0, 0x4c, 0x47, 0x4a, 0x27, 0x16, 0x46,
  0x79, 0xba, 0x9b, 0xc2, 0x2d, 0x99, 0xd9, 0xc5, 0xe8, 0xc3, 0x58, 0x29,
  0xed, 0xa8, 0x57, 0x2d, 0xb8, 0x42, 0xa0, 0x2c, 0x64, 0xae, 0x29, 0xc0,
  0x9f, 0xb1, 0xf7, 0x40, 0x58, 0x47, 0x9c, 0xa8, 0xbf, 0x2d, 0x48, 0xaa,
  0x8a, 0xa4, 0xd6, 0x3d, 0x1a, 0xbf, 0x44, 0xbe, 0x2a, 0xc7, 0x7a, 0xa9,
  0x21, 0xb4, 0xf7, 0x94, 0x3a, 0x25, 0x47, 0x42, 0x51, 0xad, 0xf9, 0x45,
  0xcb, 0xa5, 0x47, 0x35, 0x64, 0xc1, 0xd4, 0x2b, 0x76, 0xc4, 0x77, 0xc6,
  0xed, 0x31, 0xfd, 0xb3, 0x5d, 0xc3, 0x09, 0x3b, 0xc2, 0x41, 0x3f, 0x2a,
  0x29, 0x45, 0xeb, 0x41, 0x17, 0x26, 0xb0, 0xb5, 0x78, 0x45, 0x40, 0x9f,
  0x70, 0xc5, 0x4b, 0x27, 0x61, 0x46, 0x0d, 0xa7, 0xb5, 0xa4, 0x80, 0xc1,
  0x55, 0x33, 0x42, 0x9f, 0xb3, 0xc1, 0x2b, 0x44, 0x04, 0x47, 0x07, 0x34,
  0xba, 0x3e, 0x1b, 0x3e, 0x35, 0x20, 0x3c, 0x45, 0xe8, 0x3d, 0xb4, 0x43,
  0x3a, 0xa4, 0x60, 0x3f, 0xae, 0xbf, 0x3e, 0xa7, 0xbb, 0x10, 0xb9, 0x2d,
  0xb8, 0xc7, 0x2c, 0xa5, 0x9d, 0xb1, 0xe7, 0x49, 0x49, 0x2e, 0xfa, 0x42,
  0x5a, 0x31, 0xa7, 0x27, 0x27, 0xaa, 0xc2, 0x24, 0x56, 0xaf, 0xc2, 0x43,
  0xd3, 0xc4, 0x90, 0xc9, 0x32, 0x48, 0x59, 0xb0, 0xbb, 0x35, 0x27, 0x9a,
  0x5f, 0xaa, 0x8e, 0xca, 0xe9, 0x2b, 0x72, 0xb6, 0xc0, 0x2f, 0x30, 0xbd,
  0x78, 0x3e, 0xeb, 0x30, 0x17, 0xbc, 0x20, 0x4a, 0x7c, 0xc8, 0x6b, 0x38,
  0xa6, 0xc3, 0xb4, 0xc6, 0xde, 0xc9, 0x90, 0x29, 0x9e, 0xc8, 0x74, 0xb0,
  0x71, 0x9d, 0xa4, 0x2f, 0x70, 0x41, 0x7e, 0x28, 0x5b, 0x48, 0x81, 0x90,
  0x73, 0x43, 0x7a, 0xa4, 0x05, 0xa0, 0xf8, 0xc1, 0x65, 0x2d, 0x54, 0x27,
  0xb1, 0xc8, 0x14, 0xc3, 0xe6, 0x49, 0x8a, 0x3d, 0x25, 0x40, 0x92, 0xc8,
  0x44, 0x26, 0xc0, 0x48, 0x90, 0xc8, 0x3f, 0xc0, 0x7a, 0x1d, 0x13, 0x3c,
  0xb3, 0xc5, 0x6f, 0xa8, 0x2c, 0xaa, 0x3d, 0x9c, 0x70, 0xc4, 0x68, 0xaa,
  0xe8, 0xb1, 0xb9, 0xc8, 0xa5, 0xaa, 0x25, 0x3b, 0x6e, 0xc7, 0x87, 0xa2,
  0x3b, 0xaf, 0x7d, 0xae, 0x67, 0x20, 0x73, 0xc8, 0x82, 0xc2, 0x3c, 0x47,
  0x64, 0xc9, 0x7a, 0x2e, 0x4a, 0x2f, 0x8c, 0xa5, 0xd1, 0xaa, 0xcf, 0xbe,
  0x90, 0x31, 0xcd, 0x44, 0xda, 0xaf, 0x53, 0x3c, 0xb0, 0xc3, 0x75, 0xb0,
  0x51, 0xb8, 0xf4, 0xc8, 0x03, 0x42, 0xc8, 0xb8, 0xa4, 0x44, 0xf4, 0x46,
  0x2d, 0x46, 0x18, 0x28, 0xec, 0x3d, 0xd9, 0xc2, 0x83, 0xa0, 0x44, 0xad,
  0x3c, 0xc4, 0x3d, 0x2c, 0x6f, 0xc6, 0x99, 0x29, 0x86, 0xc7, 0xd7, 0x27,
  0x49, 0x2b, 0x8c, 0x49, 0xf7, 0x1e, 0x1b, 0xa7, 0x53, 0x46, 0xe3, 0xc7,
  0xa8, 0xc8, 0x85, 0x48, 0x21, 0xc9, 0xe4, 0xc3, 0x4e, 0xab, 0xe4, 0xc7,
  0x2a, 0x48, 0x72, 0xc4, 0x1d, 0x9f, 0x1e, 0xc7, 0x28, 0x40, 0x5e, 0x26,
  0xee, 0xa5, 0x57, 0xa8, 0x9d, 0x49, 0x65, 0xa5, 0xb7, 0x2c, 0xc9, 0xc8,
  0xa0, 0x23, 0x7c, 0xc0, 0x4a, 0xc5, 0x92, 0xa5, 0xe3, 0xaf, 0xfd, 0xb1,
  0xd4, 0x29, 0x78, 0xa7, 0xb5, 0xc4, 0x25, 0x32, 0x30, 0xc9, 0x09, 0x94,
  0xa7, 0x33, 0x6a, 0xa4, 0x6d, 0x1c, 0xbb, 0xc0, 0x63, 0x33, 0x0d, 0x46,
  0x86, 0x31, 0x1d, 0xb5, 0x4b, 0x42, 0x98, 0xa4, 0xf6, 0xc8, 0xf8, 0x41,
  0xeb, 0xb9, 0x98, 0x2a, 0x5f, 0xc5, 0xa1, 0x48, 0x34, 0x46, 0xea, 0x2b,
  0x73, 0x47, 0x19, 0x3a, 0xda, 0xa5, 0x27, 0x29, 0x6e, 0x44, 0x01, 0xa3,
  0x1f, 0x44, 0x6d, 0x2c, 0x48, 0xc8, 0x26, 0xac, 0x63, 0x2d, 0xad, 0x48,
  0x10, 0xb3, 0xf1, 0x9d, 0x5a, 0xbe, 0x2c, 0xb8, 0xd6, 0x41, 0xec, 0x41,
  0x15, 0x3b, 0x6b, 0xc6, 0x16, 0xa6, 0xe7, 0xbc, 0x79, 0x3d, 0xac, 0xb8,
  0xb0, 0x1b, 0x76, 0xc8, 0xd5, 0x45, 0x3e, 0xa2, 0x7d, 0x28, 0xa6, 0x27,
  0x6c, 0x46, 0xb8, 0x29, 0x1f, 0x21, 0xc5, 0xba, 0x27, 0x31, 0x90, 0x43,
  0x5b, 0x45, 0x1e, 0x2c, 0xa2, 0x23, 0x84, 0x30, 0xd5, 0x2e, 0xca, 0x44,
  0x65, 0x3a, 0x9e, 0xbb, 0xaa, 0x3c, 0x2e, 0xad, 0x3a, 0x2a, 0x83, 0x25,
  0x33, 0x8b, 0x38, 0x43, 0xf0, 0xae, 0x11, 0xc2, 0x5c, 0xb0, 0x16, 0xc0,
  0x3e, 0xbd, 0x4e, 0xaf, 0x9c, 0x42, 0x55, 0xc2, 0x2b, 0xc3, 0x3c, 0xb4,
  0x2a, 0x47, 0xa7, 0x41, 0xe2, 0xc8, 0xd5, 0xac, 0x9d, 0x3b, 0x6b, 0xc4,
  0xfe, 0x21, 0x66, 0xa8, 0x82, 0xc0, 0xce, 0x2c, 0x2f, 0xc5, 0x6e, 0x2a,
  0xb5, 0x48, 0x77, 0x31, 0xcd, 0x2c, 0xc4, 0xc6, 0x17, 0xb1, 0x4b, 0x23,
  0x26, 0xc8, 0x2d, 0xbf, 0xfd, 0x40, 0x50, 0xc2, 0x4d, 0xc4, 0x57, 0xc3,
  0x81, 0xa9, 0xbd, 0xc2, 0x0a, 0xc6, 0xd1, 0xc2, 0x7b, 0x1e, 0xef, 0x43,
  0x04, 0x44, 0x84, 0x26, 0xd6, 0xa2, 0x4f, 0x9c, 0xc9, 0xb0, 0xdf, 0xa9,
  0x70, 0xb0, 0xf6, 0x44, 0x12, 0x2a, 0x2b, 0x44, 0xba, 0x42, 0x99, 0x2e,
  0x5a, 0x2a, 0x60, 0x2c, 0xa5, 0xa8, 0x6b, 0xc0, 0xc9, 0x43, 0x4a, 0x44,
  0x08, 0xc5, 0x33, 0xac, 0x0f, 0x30, 0x92, 0xa0, 0x15, 0xac, 0xc2, 0x44,
  0xe6, 0x2e, 0xce, 0x45, 0x0e, 0xae, 0xe8, 0xbf, 0x59, 0x3c, 0xe9, 0x29,
  0x42, 0xc0, 0xc7, 0xc0, 0xca, 0x44, 0x21, 0x34, 0xd3, 0xbb, 0x29, 0xba,
  0x2d, 0xc6, 0xe3, 0xae, 0x81, 0xb3, 0x71, 0xc4, 0xb1, 0x22, 0xbb, 0xb0,
  0x7c, 0xc6, 0x4c, 0xae, 0x85, 0x44, 0x06, 0xb1, 0x2e, 0x45, 0x47, 0x28,
  0x7f, 0x27, 0x54, 0x30, 0x8c, 0x32, 0x06, 0xac, 0x76, 0xc3, 0x1a, 0xc1,
  0x09, 0xc6, 0x70, 0xbd, 0x48, 0x46, 0xa4, 0x46, 0xd1, 0xaa, 0x80, 0x3b,
  0x3a, 0x44, 0x69, 0xc8, 0x05, 0x1b, 0x30, 0x41, 0xbd, 0x45, 0x05, 0xa5,
  0xac, 0x24, 0x0e, 0xae, 0xcb, 0xc6, 0x44, 0xad, 0x97, 0xab, 0xc9, 0x47,
  0xcb, 0xaf, 0x9b, 0x45, 0x19, 0xb9, 0x1e, 0xac, 0xa4, 0x2f, 0x63, 0xae,
  0x61, 0xad, 0x8c, 0xc2, 0x83, 0xc5, 0xa7, 0xc3, 0x4a, 0x3a, 0x1d, 0xb2,
  0xe8, 0xa7, 0x9b, 0x24, 0xf0, 0x29, 0x11, 0x42, 0x6f, 0x34, 0x6a, 0x3a,
  0x7f, 0x32, 0x41, 0xbd, 0x97, 0xc0, 0x44, 0xb1, 0x67, 0x40, 0x8d, 0xc5,
  0x1d, 0xc8, 0xbc, 0x2c, 0x54, 0x35, 0x08, 0x38, 0x84, 0xbd, 0xdc, 0x2d,
  0xde, 0x44, 0xae, 0x44, 0x10, 0xa5, 0xbc, 0xa6, 0xd0, 0x3e, 0x8e, 0xaa,
  0xda, 0x40, 0x5c, 0xac, 0x52, 0x47, 0x9a, 0xad, 0x63, 0x22, 0x28, 0xc3,
  0x14, 0x34, 0xdf, 0xa0, 0x9f, 0xc5, 0x4a, 0x3c, 0x56, 0x47, 0x54, 0xc6,
  0xe1, 0x46, 0xb4, 0x44, 0x4b, 0x2c, 0x36, 0xbe, 0x4f, 0x3c, 0xba, 0xc7,
  0x73, 0x9e, 0x51, 0x46, 0x05, 0x45, 0x50, 0xa1, 0x41, 0xaa, 0x27, 0xac,
  0xe2, 0x43, 0x0b, 0xa6, 0x95, 0xab, 0x20, 0xc6, 0xfb, 0x30, 0x8c, 0xc8,
  0x7e, 0x3c, 0x34, 0x2c, 0x77, 0xa9, 0x88, 0x30, 0x9a, 0xae, 0x82, 0xc6,
  0xdd, 0x44, 0x9c, 0x47, 0x56, 0xc9, 0xe8, 0x2d, 0x45, 0x30, 0x0a, 0x99,
  0xc4, 0x29, 0x9f, 0x3e, 0x05, 0xb5, 0x07, 0x4a, 0x4e, 0xb1, 0xa8, 0x3c,
  0xf1, 0xc9, 0x08, 0x2a, 0x6a, 0xc0, 0x53, 0xc8, 0xfb, 0x48, 0xb0, 0xb9,
  0x82, 0x42, 0x7a, 0x3c, 0x8a, 0x44, 0xfa, 0x27, 0x78, 0x49, 0x8c, 0x43,
  0xd3, 0x1d, 0x7a, 0x32, 0x01, 0xc6, 0xbb, 0x2e, 0x5f, 0xc8, 0xcf, 0xab,
  0x25, 0xc8, 0x85, 0xac, 0xe6, 0x29, 0xb9, 0x45, 0xb0, 0xb2, 0xcf, 0x1f,
  0xee, 0x48, 0xa6, 0xc4, 0x79, 0xbf, 0xd8, 0x49, 0x19, 0xc8, 0xd6, 0x47,
  0xce, 0x20, 0xa6, 0xc8, 0xd1, 0x48, 0x2d, 0x45, 0xf0, 0x9c, 0x96, 0xc1,
  0xd6, 0x42, 0xd5, 0xa4, 0x03, 0xa5, 0x64, 0x2b, 0x54, 0x45, 0x67, 0x2a,
  0xd4, 0xad, 0xdc, 0xc3, 0x82, 0xae, 0x19, 0xc5, 0x5f, 0xbf, 0x19, 0x2f,
  0xb0, 0xac, 0xf7, 0x20, 0x58, 0x26, 0x04, 0x40, 0x7d, 0xc6, 0xa2, 0x41,
  0x55, 0xc8, 0xa0, 0xac, 0x9f, 0xb1, 0x95, 0x9d, 0x29, 0xac, 0x18, 0xc4,
  0x21, 0xb5, 0x6f, 0x47, 0xd3, 0xb6, 0xb8, 0x39, 0xcf, 0x40, 0xd1, 0x33,
  0x98, 0xc6, 0x29, 0x46, 0xba, 0x42, 0x8c, 0xac, 0xa2, 0x45, 0x6a, 0x48,
  0x47, 0x48, 0x4f, 0x21, 0xc9, 0xc4, 0xaf, 0x3e, 0xf7, 0xa8, 0x69, 0xa8,
  0x61, 0xb1, 0x1f, 0xb0, 0x60, 0xc6, 0xef, 0xa6, 0xb3, 0x43, 0x58, 0xa9,
  0x2c, 0x28, 0x3b, 0x48, 0x08, 0x32, 0x41, 0x25, 0x21, 0xbd, 0xac, 0xbe,
  0x9b, 0xc1, 0x7d, 0x44, 0x4e, 0xc2, 0x75, 0xc1, 0x51, 0x2b, 0x6c, 0x46,
  0x3a, 0xc0, 0x2d, 0x46, 0x6f, 0xa5, 0x5f, 0xc7, 0x36, 0x39, 0xf3, 0x18,
  0x0c, 0xac, 0xf2, 0xa4, 0x31, 0x40, 0x73, 0x2a, 0x47, 0xb1, 0xe4, 0xc1,
  0x0e, 0xa1, 0xd6, 0x43, 0xa3, 0xc8, 0x67, 0xad, 0xe4, 0xaa, 0xee, 0xb1,
  0x94, 0xa9, 0x4e, 0xc8, 0x46, 0xc2, 0x09, 0x41, 0x3c, 0xbc, 0xb8, 0x9a,
  0x5e, 0xab, 0xbf, 0xa1, 0xcb, 0xa2, 0x54, 0x42, 0x70, 0x2d, 0x8a, 0xc2,
  0x2e, 0xb6, 0x15, 0x29, 0x76, 0xc8, 0xfd, 0xaa, 0xc2, 0xc8, 0x63, 0xc2,
  0x84, 0xc1, 0xc1, 0xb2, 0x8c, 0xbf, 0xf3, 0x40, 0x97, 0x45, 0x1e, 0xa6,
  0xe2, 0x3e, 0xe9, 0xc3, 0xac, 0x1c, 0x9d, 0xb2, 0xce, 0xc6, 0x6c, 0x33,
  0x10, 0x44, 0x23, 0x31, 0xe7, 0xb7, 0xa5, 0xaf, 0x47, 0x2d, 0x93, 0x46,
  0xc7, 0xb1, 0x24, 0xa3, 0x9f, 0x44, 0x60, 0xc3, 0x8c, 0x3e, 0x5a, 0xc4,
  0x41, 0xc7, 0x66, 0xc9, 0x4e, 0x2a, 0xa5, 0x3b, 0xf1, 0x3e, 0xb0, 0xb8,
  0xc4, 0x21, 0xd5, 0x29, 0x8f, 0x3e, 0x3d, 0xa9, 0x53, 0xa5, 0x5f, 0x2b,
  0x69, 0x48, 0xbd, 0x26, 0x65, 0x9e, 0x02, 0xc8, 0x3c, 0xb0, 0x02, 0xbd,
  0xa8, 0xb6, 0x65, 0x2b, 0xce, 0xac, 0x9c, 0x2d, 0x1c, 0xae, 0x27, 0xc4,
  0x52, 0xc0, 0x79, 0x47, 0x96, 0xc5, 0x0f, 0x19, 0x4e, 0x35, 0xc7, 0x20,
  0x3f, 0xa9, 0xb2, 0xbd, 0x37, 0xb0, 0xa4, 0xc4, 0x07, 0xb0, 0x24, 0x3c,
  0x9e, 0x44, 0x2f, 0x34, 0xf6, 0x44, 0x22, 0x46, 0x27, 0x44, 0x7b, 0xb4,
  0x76, 0x3f, 0x92, 0x3d, 0x42, 0xc4, 0xec, 0xae, 0xf3, 0xbc, 0x42, 0xc3,
  0xcc, 0x1e, 0xa7, 0xa8, 0x3b, 0xc3, 0x09, 0xaf, 0x74, 0xc5, 0x0a, 0x1c,
  0x75, 0x45, 0x77, 0x26, 0x9d, 0xa0, 0x3d, 0xc5, 0x34, 0x34, 0x23, 0xaa,
  0x0a, 0x3d, 0x81, 0xc2, 0xbe, 0xc0, 0xcb, 0x41, 0x53, 0x41, 0xd4, 0x40,
  0x00, 0x29, 0xb3, 0xbd, 0x62, 0xc0, 0x0d, 0xc4, 0xdb, 0xa4, 0x28, 0x44,
  0xd4, 0x46, 0x05, 0x18, 0x4d, 0xac, 0xf9, 0xa9, 0x21, 0xc6, 0xcd, 0xa6,
  0x38, 0x2d, 0x3d, 0xc8, 0x6c, 0xb0, 0xc2, 0xc7, 0xbc, 0xbd, 0x65, 0xab,
  0xf6, 0x2c, 0x01, 0xb0, 0x00, 0x25, 0x13, 0xc5, 0xbc, 0xbf, 0x5a, 0x42,
  0x6d, 0xc5, 0xc9, 0x29, 0x3d, 0xb4, 0x63, 0x24, 0xa9, 0x18, 0x75, 0xc1,
  0x0a, 0xb4, 0x7c, 0xc4, 0x51, 0xb1, 0x76, 0x3d, 0x87, 0xbe, 0x52, 0x2c,
  0x6d, 0xc0, 0x6a, 0x44, 0x56, 0xc5, 0xe6, 0xb6, 0xf8, 0x46, 0xff, 0x34,
  0x32, 0xc5, 0xed, 0xaa, 0x94, 0x45, 0x42, 0x37, 0x88, 0xa4, 0xed, 0xb3,
  0x6d, 0xaf, 0xcb, 0x96, 0x25, 0xbd, 0x2f, 0x29, 0xbb, 0x40, 0x0f, 0xaf,
  0xc1, 0xac, 0x29, 0x39, 0xa6, 0x2e, 0x43, 0x20, 0xc9, 0x46, 0x45, 0xc5,
  0xc0, 0xb5, 0x4e, 0x48, 0x14, 0x46, 0x4b, 0xc4, 0x17, 0xad, 0x52, 0x44,
  0x1c, 0xc2, 0xb7, 0x45, 0xac, 0x1a, 0x28, 0xc8, 0xbf, 0x44, 0x97, 0x20,
  0xd8, 0xa9, 0x94, 0xac, 0x84, 0x46, 0x7b, 0x28, 0xd8, 0x28, 0x35, 0xc4,
  0x4e, 0x1d, 0x4a, 0xc9, 0xc9, 0xc4, 0xdc, 0x28, 0xee, 0x9d, 0x32, 0x2d,
  0xf4, 0x2c, 0xd2, 0xb2, 0xa0, 0x44, 0xc9, 0xbc, 0x56, 0xc7, 0xbb, 0x2f,
  0xab, 0x2c, 0x8a, 0x24, 0x26, 0x28, 0x73, 0xb4, 0x66, 0xb1, 0x21, 0x3b,
  0xd3, 0x32, 0x7c, 0xb1, 0x3e, 0xbd, 0xd6, 0x30, 0xbf, 0xc8, 0x90, 0xc4,
  0xa6, 0x44, 0x26, 0x36, 0x67, 0xc6, 0x5b, 0x45, 0x37, 0x3c, 0x6c, 0xad,
  0x45, 0x49, 0xa8, 0x44, 0xcf, 0x9e, 0x98, 0xae, 0xe6, 0xc6, 0x10, 0xb4,
  0xba, 0xc8, 0x8c, 0xaf, 0xde, 0xc6, 0xc5, 0x2b, 0xdb, 0x2e, 0xc7, 0x49,
  0x7d, 0xb1, 0x0c, 0x2b, 0xd2, 0x47, 0xd2, 0xbe, 0xe2, 0xc8, 0xaa, 0x46,
  0x6a, 0xc4, 0x6f, 0x46, 0xed, 0x19, 0x14, 0xcb, 0x25, 0x48, 0x89, 0x31,
  0x18, 0x23, 0xf2, 0xc2, 0xfe, 0x49, 0x2f, 0x24, 0x0e, 0x2a, 0xca, 0x28,
  0xa4, 0x4a, 0x88, 0xab, 0x86, 0xa8, 0x96, 0x40, 0x94, 0xab, 0x77, 0x46,
  0x9d, 0x47, 0x2a, 0xa9, 0x6a, 0x27, 0x49, 0x24, 0x92, 0xae, 0x33, 0x40,
  0x30, 0xc9, 0x99, 0xca, 0x83, 0x41, 0x37, 0xae, 0x91, 0x34, 0xee, 0x1d,
  0xb4, 0xac, 0x58, 0xbc, 0x2d, 0x32, 0x28, 0xc5, 0xc6, 0xad, 0x0f, 0xbe,
  0x39, 0x43, 0x8d, 0x33, 0x2d, 0xbe, 0x9d, 0x47, 0x37, 0xc7, 0x94, 0x37,
  0xb2, 0xc5, 0x11, 0x20, 0xc8, 0xc7, 0xab, 0x22, 0x45, 0xc9, 0xbd, 0xc5,
  0xc3, 0x9b, 0xaf, 0x34, 0x08, 0x4a, 0x57, 0x30, 0x5b, 0x4a, 0x99, 0x28,
  0x07, 0x4a, 0x10, 0xae, 0x19, 0xaa, 0x00, 0xc6, 0xeb, 0x2f, 0x68, 0xa7,
  0x71, 0xc8, 0x2f, 0x47, 0x81, 0x42, 0xf9, 0x3f, 0x67, 0x3c, 0x95, 0xc8,
  0x79, 0xac, 0x6a, 0x48, 0x4f, 0xc9, 0xa7, 0xba, 0x73, 0x24, 0x95, 0x40,
  0x01, 0xc9, 0xbb, 0x24, 0x75, 0xa8, 0x1f, 0xa3, 0x8d, 0xc8, 0xa6, 0x9c,
  0xc3, 0x2f, 0x1b, 0xc7, 0x5e, 0x2f, 0x34, 0x35, 0x0f, 0x38, 0xad, 0x2e,
  0x9a, 0xac, 0x88, 0xad, 0x2f, 0x24, 0xc6, 0xc0, 0x09, 0x4a, 0xe8, 0x37,
  0x84, 0xca, 0xc1, 0x1f, 0xb8, 0x31, 0x46, 0x9d, 0x5c, 0x2b, 0x44, 0xb4,
  0xe2, 0x2e, 0xf1, 0x41, 0x7b, 0x2e, 0x28, 0xbb, 0x4f, 0xc4, 0x88, 0xb1,
  0x95, 0x3c, 0x7c, 0xcb, 0x1c, 0x37, 0x6b, 0x2f, 0xe6, 0xc3, 0xda, 0xbf,
  0x7b, 0x46, 0xcd, 0xab, 0x59, 0x47, 0x4c, 0x41, 0xaf, 0x29, 0xf3, 0xac,
  0xbf, 0xc9, 0xa4, 0x29, 0x3a, 0x3f, 0x14, 0xaf, 0xf8, 0x38, 0x82, 0x30,
  0xb9, 0x21, 0xe5, 0x4a, 0x2f, 0xb0, 0x24, 0x2c, 0x54, 0x4a, 0x9d, 0xc5,
  0xeb, 0x30, 0xe8, 0x40, 0xc6, 0xc9, 0xa6, 0x37, 0x6c, 0x2e, 0x8b, 0xc5,
  0x01, 0x46, 0x63, 0x48, 0x38, 0x20, 0x6e, 0xc8, 0xf8, 0xb6, 0x41, 0x9d,
  0x84, 0x2d, 0x87, 0xaa, 0x0b, 0x49, 0x16, 0x20, 0x62, 0x31, 0xe9, 0xba,
  0x11, 0x2d, 0xb1, 0x46, 0xbd, 0x3f, 0x12, 0xad, 0x0a, 0x99, 0x2c, 0x2a,
  0x2f, 0x2b, 0xf2, 0x49, 0x21, 0xc7, 0x57, 0xb8, 0xe1, 0xbc, 0xf6, 0xb1,
  0xe6, 0x2c, 0x66, 0x16, 0x3a, 0x9d, 0x04, 0xc9, 0x16, 0x30, 0x1e, 0xc6,
  0x2a, 0x33, 0x1b, 0xb2, 0x6f, 0x3b, 0xec, 0xa5, 0x66, 0x48, 0x5a, 0xc1,
  0xd3, 0xbf, 0x70, 0x34, 0xf9, 0xc4, 0x4d, 0xc8, 0xd8, 0xbd, 0x20, 0x29,
  0xfb, 0xc5, 0xe4, 0xc1, 0x9c, 0x9a, 0x08, 0xa9, 0xd7, 0x48, 0x05, 0xae,
  0x29, 0x40, 0x82, 0x2b, 0x39, 0x49, 0xe2, 0x2d, 0x22, 0xab, 0x17, 0x3b,
  0xeb, 0xaa, 0x99, 0x9c, 0x58, 0xc9, 0x45, 0xb2, 0x58, 0x49, 0x49, 0xc9,
  0x1b, 0x41, 0x50, 0xc5, 0x83, 0x25, 0x27, 0xc2, 0xc2, 0xc2, 0xa4, 0xc8,
  0xe8, 0x9a, 0x8d, 0x48, 0xca, 0xc5, 0x38, 0x28, 0x40, 0xa1, 0x73, 0x30,
  0x9b, 0x3a, 0x0a, 0x28, 0x82, 0x31, 0xd7, 0x3f, 0x21, 0x32, 0x63, 0x3a,
  0x86, 0x40, 0x7d, 0x2c, 0x97, 0xa9, 0x55, 0x24, 0xc6, 0x2d, 0x3c, 0x41,
  0x5e, 0xc7, 0x09, 0xc1, 0x56, 0x45, 0xae, 0x2d, 0x33, 0xac, 0xb3, 0x1f,
  0x1a, 0xa4, 0x7e, 0xc6, 0xb5, 0x30, 0x1d, 0x3f, 0xbb, 0x27, 0x4c, 0x3c,
  0x5e, 0x45, 0x9a, 0x30, 0x01, 0xc5, 0xdb, 0x42, 0xd3, 0x34, 0x3e, 0x38,
  0x1e, 0x3d, 0x46, 0x38, 0x71, 0x40, 0x83, 0x27, 0x1a, 0xbe, 0xe2, 0x2d,
  0xe5, 0x21, 0x94, 0xb2, 0x5a, 0x40, 0x93, 0xb2, 0x03, 0xc5, 0x28, 0x27,
  0x53, 0xb9, 0x13, 0x31, 0xab, 0xa2, 0x72, 0xc8, 0x01, 0xaa, 0xa6, 0x24,
  0x06, 0x44, 0xd6, 0x46, 0x57, 0xbd, 0x83, 0xbd, 0x40, 0x45, 0xe0, 0x43,
  0x52, 0x1f, 0x9d, 0xc4, 0x18, 0xba, 0x21, 0xc8, 0x58, 0x24, 0xb5, 0x47,
  0x93, 0x44, 0x47, 0x29, 0x2e, 0xa9, 0x46, 0x2c, 0x3a, 0xc6, 0x59, 0x99,
  0x86, 0x2b, 0x28, 0xc8, 0x2c, 0x26, 0x6c, 0x41, 0xc8, 0xb2, 0x7d, 0x1f,
  0x9a, 0x30, 0x2b, 0xaf, 0xf2, 0x24, 0xee, 0x3d, 0x85, 0x41, 0x46, 0x49,
  0x0e, 0x3f, 0x11, 0x29, 0x8d, 0x31, 0x03, 0x24, 0x56, 0xac, 0xc6, 0xc1,
  0x1d, 0xaf, 0x33, 0x40, 0x9e, 0x30, 0x86, 0x38, 0xa3, 0xc8, 0xec, 0xb4,
  0x99, 0xba, 0xab, 0xc3, 0x6d, 0xc1, 0x22, 0xb8, 0xe2, 0xc4, 0xe1, 0x46,
  0x00, 0x43, 0xe1, 0x8d, 0xea, 0xbf, 0x9a, 0x42, 0x5c, 0x26, 0xfe, 0x2c,
  0x62, 0xc5, 0x13, 0x31, 0xb0, 0x3e, 0xb5, 0x2a, 0xb8, 0xc2, 0x8e, 0xa0,
  0xaa, 0x27, 0x66, 0xc1, 0x0a, 0xaf, 0x00, 0x15, 0x3a, 0xc4, 0x60, 0x41,
  0x11, 0xc3, 0x09, 0x49, 0x4e, 0xc1, 0x18, 0xc0, 0xa9, 0xa8, 0xc2, 0x44,
  0xcf, 0x43, 0x67, 0x32, 0xef, 0x20, 0x8b, 0x36, 0x2d, 0xc4, 0x2a, 0x24,
  0x94, 0xa9, 0x13, 0x20, 0x70, 0x44, 0x6b, 0xac, 0x94, 0x2a, 0x32, 0xbe,
  0xa7, 0xb1, 0x69, 0x3d, 0xae, 0x44, 0x74, 0x2c, 0x90, 0x95, 0xd7, 0x30,
  0x10, 0xab, 0xd4, 0x3c, 0x35, 0x45, 0x49, 0xc8, 0x03, 0x3e, 0x7f, 0x29,
  0x8d, 0x33, 0xb9, 0xa3, 0x89, 0x27, 0xa6, 0xbe, 0x76, 0xb3, 0xcf, 0xc5,
  0xd5, 0xac, 0xc4, 0xbe, 0xfa, 0x38, 0xda, 0x33, 0x02, 0xc1, 0x77, 0x43,
  0x95, 0xc5, 0xa9, 0xb7, 0xa8, 0xbf, 0xda, 0x3c, 0x5a, 0x44, 0x68, 0x25,
  0x48, 0xc0, 0xe8, 0x3e, 0xd8, 0xa6, 0x9c, 0xb1, 0xde, 0x40, 0x28, 0x27,
  0x32, 0xbe, 0xc9, 0x9e, 0x23, 0x39, 0xf3, 0x2a, 0x57, 0x20, 0x53, 0x3d,
  0x43, 0x2f, 0xc4, 0xab, 0x81, 0x42, 0x8a, 0xbc, 0xde, 0x44, 0xfc, 0x45,
  0x6c, 0xc4, 0xc1, 0xba, 0xb7, 0x28, 0x0d, 0xc3, 0x26, 0x46, 0x1a, 0xc8,
  0x29, 0xa5, 0x09, 0x47, 0xea, 0x45, 0xcc, 0x1f, 0xd3, 0xac, 0x54, 0x26,
  0xc9, 0xc4, 0x58, 0x16, 0x47, 0xa3, 0x76, 0x3c, 0xaf, 0xae, 0xe9, 0x40,
  0x05, 0x46, 0x32, 0xa8, 0x80, 0x2f, 0x18, 0xa7, 0x40, 0xb0, 0x13, 0x48,
  0x9a, 0xc2, 0x79, 0x41, 0x33, 0x44, 0x16, 0xae, 0xf6, 0x32, 0x90, 0xa3,
  0x35, 0xa0, 0x66, 0xc3, 0x34, 0x33, 0x9d, 0x35, 0x01, 0xb2, 0xb2, 0x39,
  0x8f, 0x42, 0xb5, 0xaa, 0x7b, 0x46, 0x5e, 0x42, 0x10, 0xc4, 0x60, 0xb1,
  0xb5, 0x40, 0x9d, 0xc7, 0x65, 0x41, 0x76, 0xaa, 0xa4, 0x44, 0x56, 0xb2,
  0x0b, 0x21, 0x4b, 0xae, 0x89, 0xb7, 0x77, 0xaf, 0x4e, 0xc1, 0x2c, 0x2c,
  0x02, 0xbd, 0x8a, 0xa9, 0x7f, 0xab, 0x3c, 0xc6, 0x50, 0x34, 0xce, 0xa1,
  0x35, 0xc3, 0x7f, 0xbf, 0x07, 0xbe, 0x9e, 0xc8, 0x35, 0xc6, 0x99, 0xbf,
  0x4e, 0xad, 0x65, 0x38, 0x10, 0x29, 0x1f, 0xc4, 0xaf, 0x94, 0xb6, 0x46,
  0x96, 0xbd, 0xbb, 0x25, 0x0a, 0xa6, 0x3f, 0xae, 0x3e, 0x35, 0x5b, 0xa2,
  0x97, 0x26, 0x0c, 0x44, 0xd7, 0x21, 0xd2, 0x42, 0x89, 0xc4, 0xf6, 0xa9,
  0xfc, 0x2c, 0x60, 0xb0, 0x11, 0x30, 0xf1, 0xc4, 0xe4, 0x3e, 0xea, 0xc3,
  0x64, 0x45, 0xd7, 0xae, 0x00, 0x28, 0xc3, 0x9f, 0x63, 0x1c, 0x4c, 0x41,
  0xdf, 0x33, 0xac, 0xba, 0x0d, 0x34, 0xc8, 0x3b, 0x9a, 0x3d, 0x5d, 0xa2,
  0x03, 0xbc, 0x53, 0xc6, 0x8f, 0xc1, 0x33, 0x34, 0xd4, 0x42, 0x4c, 0xc4,
  0xf4, 0xbe, 0x6d, 0x2c, 0xa5, 0xc4, 0x1a, 0x40, 0xc7, 0x28, 0x06, 0xb3,
  0xe8, 0xbf, 0x45, 0xac, 0xfe, 0xbd, 0x32, 0xa9, 0x03, 0x3a, 0x08, 0xa7,
  0x83, 0xac, 0xe4, 0x46, 0x08, 0x34, 0x13, 0xa8, 0x93, 0xc0, 0xd1, 0xbd,
  0x50, 0xc0, 0x04, 0x41, 0xef, 0xc4, 0x39, 0x45, 0x22, 0x2a, 0x7f, 0x45,
  0xa3, 0x41, 0x11, 0xc7, 0x84, 0x13, 0x35, 0x45, 0xf2, 0x45, 0xa5, 0x92,
  0x76, 0x27, 0x71, 0xac, 0xe6, 0xc5, 0xd8, 0x25, 0x38, 0x31, 0x3b, 0xc0,
  0xde, 0xa8, 0x15, 0xc2, 0x10, 0xc7, 0x13, 0xa5, 0x48, 0x94, 0x72, 0xb0,
  0x82, 0x2f, 0x20, 0x44, 0xc1, 0xc0, 0x35, 0xc3, 0x4c, 0xc0, 0x37, 0x2a,
  0x51, 0x31, 0x0a, 0x24, 0x60, 0xa9, 0xd6, 0xbc, 0x3c, 0x34, 0x20, 0xc6,
  0xbd, 0x30, 0x0b, 0x3d, 0x83, 0xc4, 0x3c, 0x28, 0x32, 0x48, 0x8b, 0x45,
  0xa9, 0x43, 0x71, 0x35, 0x3b, 0x47, 0x1d, 0x44, 0x01, 0x45, 0xad, 0x23,
  0x15, 0xc6, 0x99, 0xc2, 0xf5, 0x24, 0xb9, 0x33, 0xc5, 0x47, 0x3b, 0xb4,
  0x66, 0x42, 0xf7, 0xa8, 0x68, 0xc5, 0x49, 0x2a, 0x9e, 0xa3, 0x0d, 0xc5,
  0xa4, 0xaf, 0x0c, 0x29, 0xf9, 0x3d, 0x40, 0xc6, 0x97, 0x2b, 0x95, 0xc4,
  0x0a, 0x45, 0x8b, 0x39, 0x0e, 0xa7, 0x60, 0x48, 0x32, 0x42, 0x1d, 0xc7,
  0x34, 0x20, 0xcf, 0xc6, 0x4f, 0x41, 0x6c, 0x29, 0xd1, 0xa8, 0x69, 0x28,
  0x43, 0xbc, 0x21, 0xa4, 0x73, 0x32, 0xe6, 0x3b, 0x31, 0xb1, 0x06, 0x3f,
  0x25, 0xac, 0x24, 0xae, 0x3e, 0x30, 0x7c, 0xae, 0x42, 0x30, 0xa0, 0xc5,
  0x0f, 0x45, 0x5a, 0x49, 0x5c, 0xc2, 0x16, 0xb0, 0x05, 0xb4, 0xb1, 0x92,
  0x9a, 0x28, 0x56, 0xc2, 0xe7, 0x35, 0xb6, 0x44, 0x19, 0x36, 0x72, 0xb1,
  0x2c, 0x40, 0xf0, 0xae, 0x3b, 0xc6, 0x75, 0x3e, 0xe9, 0x46, 0x7f, 0x36,
  0x59, 0x44, 0xb9, 0x49, 0xe4, 0x44, 0xd6, 0x2d, 0x58, 0x45, 0x3d, 0xc3,
  0x7e, 0x26, 0x59, 0xae, 0xa9, 0xc6, 0xdb, 0xac, 0xee, 0xbd, 0xec, 0x2d,
  0xf3, 0xc7, 0xe8, 0x2c, 0x7e, 0xab, 0xa9, 0x49, 0x7f, 0x31, 0x1d, 0xa2,
  0x62, 0xbe, 0x61, 0xc6, 0x36, 0xc2, 0x11, 0x3c, 0xfb, 0xc6, 0xae, 0xc4,
  0x77, 0x29, 0x61, 0xc6, 0xee, 0xb9, 0x07, 0x48, 0x2b, 0xa3, 0x8d, 0xc2,
  0x3d, 0x40, 0xfa, 0x1a, 0x93, 0xa0, 0xf5, 0x9e, 0x18, 0x49, 0x75, 0x2d,
  0xe0, 0x2f, 0xb4, 0x38, 0x13, 0x30, 0x94, 0x42, 0x4e, 0x49, 0xd8, 0x2a,
  0x3b, 0x22, 0xb4, 0x28, 0xaa, 0xaa, 0x33, 0xa5, 0xe9, 0xc6, 0x3b, 0xb9,
  0x53, 0x48, 0x8a, 0x2d, 0xde, 0x2c, 0x01, 0x1d, 0x06, 0xab, 0x3d, 0xc7,
  0x51, 0x2e, 0x2b, 0xc0, 0x6d, 0xad, 0x01, 0xc0, 0x28, 0x49, 0xd4, 0x2b,
  0x79, 0x46, 0x3d, 0x48, 0xb6, 0xc7, 0x6a, 0x35, 0xe7, 0xc6, 0x77, 0x34,
  0xfa, 0xc0, 0xc2, 0xad, 0x96, 0xc9, 0x4a, 0xb8, 0x96, 0xa8, 0xb5, 0xae,
  0xf1, 0x47, 0x6a, 0x30, 0x5b, 0xc4, 0x16, 0xb2, 0x36, 0x48, 0xb8, 0xa9,
  0x81, 0x2f, 0xff, 0x41, 0x9a, 0x19, 0x2a, 0xa5, 0x5a, 0xc7, 0x2c, 0xb8,
  0x87, 0x40, 0x10, 0xc3, 0x75, 0xb0, 0x74, 0xbf, 0x7b, 0x2a, 0x43, 0xac,
  0x3d, 0xbf, 0x33, 0xc6, 0xc8, 0x05, 0x22, 0x46, 0x5f, 0xc8, 0x10, 0xab,
  0xb5, 0xa5, 0x6d, 0x21, 0xa4, 0xb8, 0xdd, 0xa6, 0xa2, 0x2c, 0xb9, 0xc4,
  0xd6, 0x30, 0xdc, 0xb9, 0xb5, 0x40, 0xbe, 0x28, 0x08, 0x27, 0x4d, 0xab,
  0xd8, 0x2e, 0x38, 0x44, 0x4a, 0xc6, 0x26, 0xc5, 0x87, 0xc0, 0x02, 0x30,
  0x4a, 0x15, 0x08, 0x9b, 0x36, 0x2b, 0x8d, 0xc5, 0xcf, 0xb1, 0x91, 0xc5,
  0x40, 0x2f, 0xc0, 0xb8, 0x8b, 0x46, 0xf0, 0x31, 0xd7, 0xc6, 0x45, 0xae,
  0xbc, 0x45, 0xf6, 0xae, 0x43, 0xbf, 0x19, 0x36, 0xb6, 0xc7, 0x83, 0xaa,
  0x3e, 0xc5, 0x41, 0x44, 0xef, 0x20, 0xa4, 0xb2, 0x54, 0xb5, 0x8a, 0x2c,
  0x08, 0x3c, 0x79, 0x9c, 0x70, 0xbe, 0x6e, 0x25, 0xe0, 0xa6, 0x81, 0xbd,
  0xfa, 0xb0, 0x20, 0x29, 0x92, 0xc6, 0xe8, 0xc5, 0xfe, 0x45, 0x09, 0xc8,
  0x41, 0x41, 0x94, 0x41, 0x18, 0xaa, 0x85, 0x42, 0xa9, 0xc7, 0x47, 0xc4,
  0x78, 0xa0, 0x51, 0x36, 0x12, 0xbc, 0xe1, 0xa1, 0x68, 0x2a, 0x67, 0xa9,
  0x28, 0x41, 0xfe, 0xa6, 0xb5, 0x22, 0x45, 0xc6, 0x31, 0xaf, 0x8b, 0xc5,
  0x99, 0xc8, 0x87, 0xac, 0x98, 0x27, 0x30, 0x17, 0x41, 0xb0, 0xff, 0xc7,
  0x9b, 0x4a, 0xcb, 0x49, 0xbe, 0xc6, 0xe3, 0xae, 0x26, 0xb0, 0xdb, 0x1a,
  0x19, 0xa6, 0x51, 0x47, 0x02, 0xa5, 0xbb, 0x47, 0x6a, 0xb5, 0x92, 0x38,
  0xee, 0xc1, 0xc0, 0xab, 0xfe, 0xc9, 0xab, 0xca, 0x1f, 0x34, 0xc5, 0x28,
  0xd7, 0xc3, 0x0d, 0x45, 0x0a, 0x3c, 0x6a, 0xa8, 0x36, 0xba, 0x94, 0xc1,
  0x5f, 0x26, 0x7d, 0x32, 0xba, 0xc9, 0x07, 0x31, 0xf7, 0xc5, 0xd0, 0x31,
  0xda, 0xca, 0x87, 0xb0, 0x48, 0x2d, 0x0e, 0xb9, 0x03, 0xac, 0x2a, 0xaa,
  0x20, 0x49, 0x1e, 0xc8, 0x60, 0x38, 0x79, 0x44, 0x93, 0x2f, 0x42, 0x48,
  0x49, 0xa8, 0x1f, 0xca, 0x1d, 0x4a, 0x02, 0x4a, 0x3e, 0x17, 0x2e, 0xc0,
  0x3b, 0x47, 0xdc, 0x9e, 0xd6, 0xa8, 0xdb, 0xa3, 0x08, 0x4a, 0x8f, 0x1c,
  0x03, 0x32, 0xef, 0xc6, 0x4e, 0x31, 0x82, 0x47, 0xc7, 0x47, 0x94, 0xa6,
  0x1c, 0xa7, 0x09, 0x2e, 0xb3, 0x30, 0xf6, 0xc3, 0xd8, 0xbe, 0x59, 0xc8,
  0x16, 0x47, 0xf4, 0xae, 0x33, 0x2c, 0x8a, 0x19, 0x0e, 0x28, 0x7f, 0xc5,
  0xb0, 0x32, 0x34, 0xc6, 0x4f, 0x31, 0x21, 0xbd, 0x9b, 0x47, 0x3f, 0x31,
  0x1a, 0x46, 0x05, 0xc5, 0x46, 0xb0, 0xd6, 0x31, 0x9f, 0xc5, 0x2f, 0x44,
  0x0c, 0xc5, 0x8a, 0x2b, 0xa4, 0xc6, 0x5e, 0xb5, 0x74, 0xa5, 0x96, 0x2e,
  0x71, 0x48, 0x4d, 0xad, 0x90, 0x47, 0x33, 0xaf, 0x6a, 0xbb, 0xba, 0x30,
  0xca, 0xa2, 0xc3, 0xc5, 0x05, 0x31, 0x46, 0x21, 0xf4, 0xc7, 0xd2, 0xc5,
  0x08, 0x45, 0xe0, 0x3f, 0x08, 0xc7, 0x66, 0x43, 0xe8, 0x2d, 0xce, 0x44,
  0xd1, 0xc0, 0x33, 0x43, 0x95, 0x26, 0x04, 0x46, 0x4d, 0xc2, 0xe3, 0x25,
  0xa2, 0x23, 0x7a, 0x2a, 0x08, 0xbb, 0x7d, 0xa1, 0x71, 0xb0, 0xb3, 0xc4,
  0x9d, 0x30, 0x98, 0xbf, 0x40, 0xc6, 0x0e, 0xaa, 0x24, 0xa8, 0x3a, 0x2b,
  0xeb, 0xae, 0x52, 0xc9, 0x9c, 0xb3, 0x18, 0x39, 0x45, 0xc9, 0x08, 0x30,
  0x1a, 0x33, 0x05, 0x98, 0x4b, 0x2a, 0x1e, 0x48, 0x54, 0x2c, 0x7d, 0xba,
  0xac, 0x9f, 0x0c, 0xb6, 0xa6, 0xc6, 0x50, 0xae, 0x0a, 0xc1, 0x01, 0xc0,
  0x7b, 0xc5, 0xcb, 0x29, 0xa5, 0xc5, 0x28, 0x49, 0xc4, 0xc3, 0x5a, 0x1c,
  0x83, 0x44, 0xe0, 0x43, 0xa3, 0x20, 0xe7, 0x35, 0x1a, 0x3d, 0xe1, 0x2e,
  0x62, 0xbd, 0xdc, 0x2a, 0x30, 0x45, 0x8c, 0xad, 0xcb, 0xa5, 0x0a, 0xc4,
  0x1a, 0xb4, 0xa1, 0x1d, 0x49, 0xbc, 0x5c, 0xc0, 0x7d, 0xbe, 0x2a, 0x45,
  0x0d, 0x3e, 0xf5, 0xb2, 0x76, 0xae, 0xde, 0xbe, 0xf0, 0xb3, 0x5e, 0x46,
  0xfa, 0x20, 0xb8, 0xc8, 0x67, 0x48, 0xa6, 0xa5, 0x65, 0x2a, 0x1a, 0xb0,
  0x65, 0x48, 0x47, 0xac, 0x7d, 0x29, 0x12, 0xc8, 0xe4, 0xaa, 0xeb, 0xc2,
  0x1f, 0x38, 0x6b, 0x2e, 0xc5, 0x22, 0x1a, 0x31, 0x56, 0xad, 0x83, 0x41,
  0xfe, 0x42, 0x30, 0x3c, 0x29, 0xc9, 0x42, 0x31, 0x66, 0xaf, 0xae, 0x24,
  0x73, 0x1a, 0x9e, 0x47, 0x54, 0xb5, 0x25, 0x44, 0xe5, 0xb0, 0x14, 0x3d,
  0x2e, 0x3e, 0x37, 0x2b, 0xad, 0xc7, 0x21, 0x3b, 0xf0, 0x48, 0x0b, 0xba,
  0x89, 0x46, 0x25, 0x49, 0xe4, 0xbe, 0xf7, 0xad, 0x5a, 0x46, 0x2d, 0xc5,
  0x75, 0xa3, 0x43, 0xb3, 0x48, 0xc4, 0x60, 0xb1, 0x9e, 0x43, 0xfa, 0x29,
  0xc1, 0xb4, 0x63, 0x2d, 0x1e, 0x28, 0xb9, 0x43, 0x82, 0x80, 0x93, 0xa7,
  0x5e, 0xbf, 0x42, 0x3d, 0x22, 0x39, 0x10, 0x39, 0xbd, 0xc8, 0xd6, 0x44,
  0xfe, 0xa8, 0x5e, 0xc4, 0x8b, 0xbd, 0x0e, 0x49, 0xe4, 0x1e, 0xa5, 0xc7,
  0x3e, 0x45, 0xc2, 0x24, 0xd9, 0x1c, 0xce, 0xa8, 0x70, 0xc2, 0x94, 0x2c,
  0x8f, 0x2f, 0x02, 0xc0, 0xbe, 0xad, 0x45, 0xc4, 0xad, 0xc1, 0x84, 0x9c,
  0x33, 0xac, 0xf2, 0xab, 0xd4, 0xac, 0xc2, 0xc1, 0x77, 0x48, 0xfc, 0xc0,
  0xf6, 0xb9, 0xa7, 0x2c, 0x6a, 0x34, 0x8a, 0x9c, 0x52, 0xa9, 0x63, 0x47,
  0x80, 0x32, 0x3d, 0x42, 0x3b, 0x25, 0x2d, 0x3f, 0x83, 0x3b, 0x73, 0x2d,
  0x5d, 0x38, 0xf2, 0xc4, 0x68, 0x48, 0x68, 0xb5, 0x02, 0xc1, 0x56, 0x48,
  0x16, 0x3b, 0x1f, 0x28, 0xad, 0x37, 0xd0, 0x39, 0x5e, 0xa4, 0xb5, 0x28,
  0x4f, 0xc5, 0xbb, 0xb4, 0x18, 0xc4, 0x2e, 0x2b, 0x42, 0xc3, 0xe3, 0xac,
  0x1d, 0xa7, 0xf2, 0x48, 0x97, 0xa8, 0x50, 0x29, 0x54, 0x41, 0x81, 0xc8,
  0xf3, 0x3d, 0x4e, 0x46, 0x14, 0xc2, 0x19, 0xc4, 0x9c, 0x27, 0xa7, 0xc8,
  0xec, 0xc4, 0x9f, 0x44, 0xaf, 0x21, 0x60, 0xc7, 0x1f, 0x47, 0x49, 0x93,
  0x1b, 0x24, 0x84, 0x31, 0x68, 0xc1, 0xe8, 0x2a, 0x5a, 0xf6, 0xff, 0xff,
  0x04, 0x00, 0x00, 0x00, 0x40, 0x00, 0x00, 0x00, 0x69, 0xbf, 0x5c, 0x47,
  0x16, 0x4e, 0x42, 0xcd, 0x66, 0x4e, 0x54, 0xcb, 0x1d, 0xc1, 0xdb, 0xbe,
  0x29, 0x44, 0xbb, 0x4d, 0xb4, 0x4d, 0x86, 0x4d, 0x73, 0x4b, 0x7c, 0x50,
  0x3c, 0xcf, 0x25, 0xcc, 0xc7, 0xcd, 0xc4, 0xcd, 0x77, 0xd1, 0xbf, 0x4b,
  0xd4, 0x4d, 0x13, 0x4d, 0x37, 0xcd, 0x39, 0xd0, 0x6b, 0xce, 0x8a, 0xcb,
  0xf8, 0xc8, 0x4e, 0x4d, 0x6e, 0xd1, 0x7f, 0x24, 0x8d, 0x4f, 0x78, 0x3c,
  0xa6, 0xf6, 0xff, 0xff, 0x04, 0x00, 0x00, 0x00, 0x80, 0x01, 0x00, 0x00,
  0x7b, 0xb0, 0xed, 0xb0, 0x10, 0x36, 0x36, 0xb0, 0x8c, 0x23, 0x83, 0xb1,
  0x9c, 0xb7, 0xd7, 0x2d, 0x25, 0x36, 0x59, 0xb7, 0x08, 0xb3, 0x19, 0x35,
  0x51, 0xb4, 0x7e, 0x37, 0x40, 0xb8, 0xc2, 0xa9, 0xcd, 0x27, 0xe6, 0x2a,
  0x01, 0xaf, 0xb3, 0x2c, 0x9b, 0xb6, 0xdf, 0x28, 0x37, 0x38, 0x78, 0xae,
  0xe1, 0x31, 0xa7, 0xb4, 0xad, 0x30, 0x28, 0x34, 0x78, 0xb0, 0xb3, 0x1a,
  0x2d, 0xad, 0x16, 0x2f, 0x1d, 0xb8, 0x3d, 0xb5, 0x9f, 0xb4, 0x5d, 0xa8,
  0x80, 0xb8, 0x2e, 0xb4, 0xfc, 0x35, 0x3e, 0x30, 0x39, 0xb8, 0x0d, 0x37,
  0x2d, 0x2a, 0x09, 0xb6, 0xda, 0xb0, 0x11, 0x2e, 0xcf, 0x34, 0x14, 0xb8,
  0x4c, 0x38, 0xc6, 0xb4, 0xad, 0x33, 0x85, 0xb8, 0x39, 0x29, 0x5e, 0xb0,
  0x21, 0xb0, 0x15, 0xae, 0x92, 0xac, 0x0f, 0x37, 0xef, 0x36, 0x36, 0xb9,
  0x81, 0x33, 0x8f, 0x36, 0x5d, 0x36, 0x96, 0xb7, 0x6c, 0xa9, 0xec, 0x36,
  0x6c, 0xb4, 0x27, 0xac, 0x21, 0x35, 0x18, 0x35, 0xed, 0x31, 0x2e, 0xb5,
  0x22, 0xb8, 0x7b, 0x35, 0xe5, 0xb8, 0x70, 0x36, 0x4d, 0xb4, 0xb5, 0x9e,
  0x16, 0x2c, 0x93, 0xb4, 0xa8, 0x36, 0x39, 0xb5, 0x96, 0xb0, 0x1a, 0x35,
  0x39, 0xb8, 0xcf, 0xb8, 0x26, 0xb7, 0xe7, 0x2a, 0x1a, 0xaf, 0xea, 0xa8,
  0x96, 0x2e, 0xba, 0x2f, 0x5b, 0xb8, 0x0c, 0x37, 0x26, 0x32, 0xaa, 0x32,
  0x16, 0xba, 0xdd, 0xb5, 0xee, 0xb5, 0x61, 0x36, 0xe3, 0x30, 0x1d, 0xb8,
  0x05, 0xa4, 0xdd, 0x36, 0x5e, 0x2a, 0x58, 0xac, 0xe6, 0x23, 0xaa, 0xb5,
  0x46, 0x34, 0x17, 0xb5, 0xbd, 0xb9, 0x77, 0x35, 0x21, 0xaf, 0xfc, 0x30,
  0x20, 0xb2, 0x63, 0xb6, 0xbe, 0x34, 0xf6, 0x33, 0x6d, 0xae, 0x94, 0xb6,
  0x51, 0xb6, 0x74, 0x32, 0x01, 0xb4, 0xc4, 0x2f, 0x4c, 0xb4, 0x73, 0x2c,
  0x02, 0xb5, 0xe5, 0xb7, 0x63, 0xb2, 0x43, 0x32, 0xef, 0xb1, 0x44, 0xa8,
  0x3b, 0xb5, 0xd0, 0x34, 0xac, 0xb0, 0xd5, 0xb3, 0x8e, 0x34, 0xf6, 0xa4,
  0xa3, 0xb7, 0xce, 0xb5, 0x28, 0xb6, 0x0d, 0xb4, 0x2e, 0x32, 0x8b, 0x31,
  0xeb, 0x36, 0x87, 0x33, 0x50, 0x36, 0x5e, 0xaf, 0xd6, 0xb5, 0x7b, 0xb6,
  0x8c, 0x36, 0xab, 0x34, 0x5a, 0x31, 0xee, 0x2b, 0xcf, 0x33, 0x72, 0xb5,
  0x39, 0x37, 0x80, 0xb5, 0x1b, 0xb2, 0x7a, 0x32, 0x3d, 0xb8, 0xb4, 0x33,
  0x9e, 0x31, 0x1f, 0xb5, 0xe0, 0x35, 0xc3, 0xb7, 0x6e, 0xb7, 0x4a, 0x32,
  0xf8, 0xb5, 0x3f, 0x36, 0xf3, 0x31, 0xd5, 0x32, 0x18, 0x33, 0x5a, 0x35,
  0x34, 0xac, 0x4e, 0xb6, 0x28, 0xb9, 0x84, 0x33, 0xee, 0xaf, 0xad, 0xb5,
  0x2a, 0x35, 0x7a, 0xab, 0xaa, 0xb3, 0x17, 0xb2, 0x8d, 0xb5, 0xc7, 0xb2,
  0x33, 0xb2, 0xfd, 0x2a, 0x5d, 0x2f, 0xbe, 0xae, 0x82, 0x37, 0x22, 0x35,
  0x32, 0xf8, 0xff, 0xff, 0x04, 0x00, 0x00, 0x00, 0x0c, 0x00, 0x00, 0x00,
  0xcd, 0x2b, 0xa8, 0x18, 0x4f, 0x2e, 0x84, 0xa2, 0x10, 0xb0, 0xec, 0x19,
  0x4a, 0xf8, 0xff, 0xff, 0x04, 0x00, 0x00, 0x00, 0x80, 0x00, 0x00, 0x00,
  0x34, 0x0f, 0x00, 0x00, 0x83, 0x06, 0x00, 0x00, 0x00, 0x00, 0xfb, 0x9b,
  0xe8, 0x1e, 0xcf, 0x25, 0x22, 0x0f, 0x00, 0x00, 0x00, 0x00, 0x00, 0x00,
  0x00, 0x00, 0x68, 0x0f, 0x6d, 0x28, 0x6a, 0x00, 0xa7, 0x2a, 0x00, 0x00,
  0x5f, 0x9e, 0x00, 0x00, 0xc7, 0x9a, 0x45, 0x28, 0x00, 0x00, 0x4f, 0x11,
  0x00, 0x00, 0x00, 0x00, 0x00, 0x00, 0x0a, 0x1a, 0x00, 0x00, 0x26, 0x9e,
  0x00, 0x00, 0x19, 0x25, 0x00, 0x00, 0xef, 0xa1, 0x36, 0x01, 0x7e, 0x99,
  0x00, 0x00, 0x86, 0xab, 0x00, 0x00, 0x67, 0x29, 0x00, 0x00, 0x9c, 0x91,
  0x4a, 0x11, 0x00, 0x00, 0x39, 0x21, 0x89, 0x08, 0x00, 0x00, 0x00, 0x00,
  0x00, 0x00, 0x00, 0x00, 0x00, 0x00, 0x00, 0x00, 0x16, 0x0d, 0x00, 0x00,
  0x00, 0x00, 0x00, 0x00, 0x33, 0x88, 0x00, 0x00, 0x00, 0x00, 0x86, 0x0b,
  0xb1, 0x0e, 0xb9, 0xac, 0x00, 0x00, 0x9d, 0x0f, 0xd6, 0xf8, 0xff, 0xff,
  0x04, 0x00, 0x00, 0x00, 0x80, 0x06, 0x00, 0x00, 0xf1, 0x2a, 0xaa, 0x28,
  0x0c, 0x28, 0x92, 0x31, 0xcb, 0xac, 0xda, 0x19, 0x3c, 0xab, 0xb6, 0xb6,
  0x7b, 0x2b, 0xb8, 0xa9, 0xd3, 0x31, 0x58, 0xb7, 0xce, 0xb4, 0x16, 0xb2,
  0xa2, 0xae, 0x43, 0x30, 0x2f, 0x33, 0x40, 0x32, 0x06, 0x33, 0xbf, 0xb3,
  0xe9, 0x30, 0x74, 0x34, 0x31, 0xb0, 0x1d, 0x2d, 0x4c, 0x1c, 0x3c, 0xb3,
  0xa4, 0x2f, 0x16, 0x34, 0x3f, 0x2d, 0xc6, 0x31, 0x64, 0xad, 0x55, 0xb0,
  0x30, 0xae, 0xd0, 0xb1, 0xc1, 0xae, 0x9c, 0xa2, 0x9d, 0xac, 0x75, 0x34,
  0x76, 0x2e, 0x09, 0xb1, 0x66, 0x2d, 0x2c, 0xb1, 0x1b, 0xb1, 0x91, 0xad,
  0x80, 0x28, 0xb3, 0x26, 0xda, 0xab, 0x83, 0xaf, 0x18, 0xb4, 0x4c, 0x29,
  0xdb, 0x32, 0x11, 0xb2, 0xd1, 0xa9, 0x84, 0xaa, 0x1b, 0xb3, 0xcd, 0x26,
  0xdb, 0xae, 0xd6, 0x28, 0x70, 0xb0, 0x48, 0x2f, 0x5e, 0x33, 0x19, 0x25,
  0xab, 0x30, 0x03, 0x29, 0x21, 0xb4, 0xf6, 0x28, 0xd2, 0x34, 0x8c, 0xb0,
  0x1c, 0x32, 0xe3, 0x31, 0x28, 0xa9, 0x71, 0x31, 0x5c, 0x30, 0x54, 0x25,
  0x21, 0x30, 0x10, 0xb4, 0xce, 0xad, 0x0c, 0xaf, 0xee, 0x28, 0x03, 0x2d,
  0xac, 0x34, 0x92, 0xa5, 0x3b, 0xb1, 0x96, 0xab, 0xb0, 0xa8, 0xd3, 0x2d,
  0xce, 0x33, 0x33, 0xb5, 0x7d, 0x27, 0x13, 0x2b, 0x85, 0xa8, 0xc8, 0x21,
  0xcc, 0x34, 0x5e, 0xb4, 0x41, 0x28, 0x5f, 0xa7, 0x60, 0x32, 0x29, 0x2e,
  0xbc, 0x31, 0x51, 0xb1, 0xf2, 0x2c, 0x3c, 0xb4, 0xfb, 0x2a, 0xfe, 0x2a,
  0x3b, 0x2f, 0x39, 0x30, 0xa4, 0x31, 0xc5, 0x34, 0x32, 0x32, 0x41, 0x2b,
  0xd6, 0xb2, 0x3b, 0x94, 0xc7, 0x2d, 0x98, 0xae, 0x77, 0xb6, 0x1d, 0xb4,
  0x7d, 0x24, 0xcd, 0xb2, 0x7a, 0x31, 0x2e, 0xab, 0x29, 0x2c, 0x0c, 0xb4,
  0xf0, 0xb1, 0x7a, 0x33, 0x3d, 0xa7, 0x56, 0x2e, 0x12, 0x34, 0x3c, 0xae,
  0xc1, 0x30, 0x2a, 0xb2, 0xcc, 0xb3, 0xad, 0x32, 0x7b, 0x33, 0x7c, 0x1a,
  0x72, 0x34, 0x26, 0x32, 0x5c, 0x34, 0xaa, 0xa8, 0x32, 0x33, 0x18, 0xb1,
  0xe3, 0x33, 0x1b, 0xb4, 0x37, 0xb2, 0xa1, 0xb1, 0x60, 0x31, 0xe3, 0xb3,
  0x6a, 0xab, 0x8d, 0x2f, 0xe0, 0xb3, 0x4c, 0x34, 0xe4, 0xb1, 0xe5, 0xab,
  0x01, 0xa7, 0xb9, 0xae, 0x39, 0x32, 0x25, 0x2f, 0x01, 0xb0, 0x02, 0xb3,
  0x17, 0x33, 0x43, 0xae, 0xed, 0xaa, 0xdb, 0x31, 0xe3, 0xb3, 0x55, 0xa2,
  0x78, 0x31, 0xb3, 0x32, 0x97, 0xb3, 0x45, 0x32, 0xc8, 0x25, 0x3b, 0x26,
  0xe4, 0x2c, 0x34, 0xb3, 0x44, 0xb1, 0xd9, 0x2f, 0x67, 0x21, 0x15, 0x34,
  0x66, 0x34, 0x08, 0x27, 0x12, 0x32, 0x6d, 0x31, 0x0d, 0x34, 0x13, 0x2f,
  0xf3, 0x25, 0x85, 0x28, 0x79, 0x2e, 0x20, 0xac, 0xf3, 0x30, 0x14, 0xb3,
  0x0a, 0xab, 0x0d, 0xb0, 0xa9, 0xb3, 0xba, 0x9c, 0xa1, 0x36, 0xfb, 0x31,
  0xfc, 0x31, 0x96, 0x33, 0x67, 0x24, 0xc7, 0xac, 0x6d, 0x30, 0x82, 0x2e,
  0xc3, 0xb1, 0xf3, 0xad, 0x71, 0x36, 0xe1, 0x1f, 0xf5, 0x2c, 0x93, 0xad,
  0xcb, 0x28, 0x02, 0xa7, 0x73, 0x21, 0x90, 0xb1, 0x98, 0xb3, 0x22, 0x31,
  0x0d, 0xac, 0x76, 0x2c, 0x65, 0x20, 0x31, 0x30, 0x65, 0x9b, 0x9c, 0xa4,
  0xd3, 0xb1, 0x21, 0x30, 0x47, 0xb4, 0x80, 0xaa, 0x7d, 0x2b, 0xc3, 0x30,
  0x79, 0x2c, 0x4a, 0xb1, 0x58, 0x31, 0xb2, 0x2c, 0xb1, 0xab, 0xc3, 0xb2,
  0x55, 0x34, 0x4d, 0xb3, 0x3a, 0xa9, 0x91, 0xaa, 0xa1, 0x2e, 0x9d, 0x30,
  0x8f, 0x34, 0xe2, 0xa3, 0xcc, 0x2b, 0xda, 0xb0, 0xca, 0x29, 0xbc, 0xae,
  0xcc, 0xb1, 0x94, 0xb2, 0x6f, 0x30, 0xf4, 0x28, 0x23, 0xb2, 0xaa, 0xb0,
  0x97, 0x33, 0x45, 0xb0, 0xfd, 0xae, 0xec, 0xac, 0x09, 0x33, 0xac, 0x30,
  0x1b, 0x34, 0x5b, 0xb3, 0x42, 0xb0, 0xa4, 0x33, 0x00, 0x34, 0xe4, 0xa8,
  0x1d, 0x2e, 0xd8, 0x30, 0xdb, 0x31, 0xc4, 0x2c, 0x9f, 0x28, 0xe0, 0xad,
  0x89, 0x2d, 0x16, 0xb4, 0xa0, 0xaf, 0xbf, 0xb4, 0xfa, 0xb1, 0xe6, 0xb3,
  0xd6, 0x1b, 0xf6, 0xa6, 0x46, 0xaa, 0x48, 0xaf, 0x6c, 0xb2, 0x8d, 0x32,
  0xf7, 0x26, 0x7b, 0x36, 0x3b, 0x32, 0xdc, 0x27, 0xa8, 0x32, 0xee, 0xa9,
  0xd2, 0xaf, 0xb6, 0xa5, 0x6d, 0xaf, 0xea, 0x33, 0xcd, 0x32, 0x58, 0x29,
  0xa5, 0xb0, 0x9b, 0xb1, 0x7e, 0xb3, 0xaf, 0x29, 0xb7, 0x2d, 0x29, 0xa8,
  0x69, 0xaa, 0xff, 0xb1, 0x38, 0x2a, 0x80, 0x2e, 0x39, 0x34, 0x58, 0x31,
  0x8a, 0x34, 0x88, 0x34, 0x4d, 0x2c, 0x20, 0x2e, 0x2f, 0xa6, 0xb6, 0x30,
  0x00, 0x33, 0xc6, 0xb1, 0x31, 0xb4, 0x4f, 0xb0, 0x3d, 0xb3, 0x0b, 0xb2,
  0xa6, 0x29, 0x88, 0x31, 0x71, 0x33, 0x72, 0xb1, 0xd4, 0x30, 0x34, 0xb4,
  0x80, 0x32, 0x88, 0x32, 0x32, 0x33, 0x80, 0x32, 0x43, 0x34, 0xbf, 0xb3,
  0x95, 0x30, 0x3d, 0xa6, 0x19, 0x2f, 0x17, 0xb2, 0x6a, 0x2c, 0x0f, 0x29,
  0x85, 0xac, 0x45, 0xb0, 0x09, 0xaa, 0xc3, 0x30, 0xcb, 0x2e, 0xa3, 0x2c,
  0x9d, 0xb0, 0x39, 0xb4, 0xbd, 0xaf, 0x6d, 0xb3, 0x7a, 0xb2, 0x14, 0x21,
  0x3f, 0xb4, 0xe2, 0x2c, 0x76, 0xaf, 0x25, 0x30, 0x2a, 0x32, 0x53, 0xb4,
  0x34, 0xb2, 0xa3, 0x2d, 0x28, 0x32, 0x39, 0x34, 0x8f, 0x33, 0x8b, 0x2f,
  0x5e, 0x2a, 0x5a, 0xb0, 0x13, 0xb2, 0x1a, 0xb4, 0x7a, 0xad, 0xea, 0xad,
  0x62, 0xac, 0xbf, 0xae, 0x3b, 0xb4, 0x68, 0x33, 0x8d, 0x2f, 0x82, 0x31,
  0xd0, 0x32, 0xf7, 0x2b, 0x13, 0xac, 0xba, 0xae, 0x4f, 0x34, 0xaf, 0xb0,
  0xc4, 0x2e, 0x8c, 0xb3, 0x20, 0x27, 0x4a, 0xa9, 0x55, 0xad, 0xac, 0xb3,
  0x8d, 0x33, 0x11, 0x34, 0x24, 0xb4, 0x49, 0xaa, 0x3b, 0xb4, 0x64, 0xac,
  0x94, 0x2f, 0x54, 0x31, 0xdb, 0x31, 0xb5, 0x29, 0x61, 0xae, 0xac, 0xb3,
  0xab, 0x1f, 0x83, 0x31, 0x1e, 0xab, 0x73, 0x31, 0x20, 0x2d, 0x37, 0x34,
  0x43, 0x2d, 0xe1, 0x30, 0x45, 0xae, 0xfe, 0x2d, 0xb9, 0x30, 0x27, 0x1d,
  0x67, 0xb3, 0x0a, 0x26, 0x47, 0x2d, 0x43, 0x29, 0x63, 0x2e, 0x19, 0x31,
  0xe5, 0xb0, 0x45, 0x28, 0x5e, 0x2c, 0x83, 0xa5, 0x1d, 0x25, 0x27, 0xaf,
  0x2d, 0xb4, 0x5c, 0x22, 0x0b, 0xae, 0x30, 0x28, 0xbe, 0xaf, 0x2b, 0xa2,
  0xd8, 0x9d, 0x8b, 0x30, 0x6e, 0x2c, 0xc9, 0x29, 0x1c, 0xb0, 0x43, 0x2e,
  0xe9, 0x33, 0x0d, 0x9e, 0x7b, 0x33, 0x37, 0x33, 0xf5, 0x22, 0x80, 0xb1,
  0x09, 0x30, 0x95, 0x1e, 0x34, 0x31, 0x42, 0xb1, 0x54, 0xae, 0x0f, 0x34,
  0xfb, 0xb2, 0x62, 0xab, 0x24, 0x31, 0xf5, 0xad, 0xaa, 0x2e, 0x81, 0xaf,
  0x22, 0x2c, 0x34, 0x36, 0x9b, 0xb1, 0x02, 0x9f, 0xe7, 0x30, 0x29, 0x29,
  0x87, 0xb0, 0xaa, 0x34, 0xdb, 0xaa, 0xd6, 0x27, 0xd4, 0x2b, 0xf6, 0x2b,
  0xe4, 0x25, 0x2c, 0x2a, 0xd2, 0x29, 0xe6, 0x31, 0x89, 0xae, 0xd1, 0xb3,
  0x82, 0xb0, 0x6a, 0x34, 0x19, 0x32, 0x90, 0x30, 0xf7, 0xb2, 0x54, 0xb1,
  0x62, 0xaf, 0x22, 0xb4, 0xf6, 0xab, 0x7c, 0x0b, 0xdd, 0xa0, 0x08, 0xb3,
  0x6e, 0xa6, 0x46, 0x33, 0x49, 0xb3, 0x25, 0x34, 0x8e, 0x2d, 0xac, 0xa1,
  0xea, 0x2a, 0x22, 0x29, 0xc6, 0x30, 0x23, 0xb0, 0x0b, 0xb4, 0xff, 0x21,
  0x29, 0x35, 0x8c, 0x2f, 0x33, 0x9f, 0x41, 0x33, 0x2d, 0x35, 0xfb, 0x36,
  0x48, 0xab, 0x7f, 0xb2, 0x81, 0xae, 0x6d, 0x2b, 0x85, 0x30, 0xfe, 0x2c,
  0xa6, 0x28, 0xeb, 0x28, 0x6b, 0x33, 0xdd, 0xb1, 0x16, 0xb3, 0x59, 0xb4,
  0x97, 0xb3, 0x1c, 0x1d, 0x7e, 0xac, 0xe5, 0x2e, 0xa0, 0xb2, 0x75, 0xaf,
  0x55, 0x33, 0xce, 0xac, 0x5b, 0x38, 0x80, 0x31, 0x55, 0x2f, 0xbf, 0x2a,
  0x02, 0x34, 0xff, 0x2a, 0xab, 0xb3, 0xb0, 0xb0, 0xa8, 0xb0, 0x66, 0x33,
  0xc5, 0x31, 0x25, 0x2f, 0x07, 0xb4, 0x05, 0x20, 0x82, 0x2a, 0xd9, 0x30,
  0x5a, 0x2a, 0x9a, 0xb2, 0x7a, 0x32, 0xce, 0x2d, 0xbb, 0x31, 0x9a, 0x25,
  0x9b, 0xb0, 0xbf, 0xae, 0xda, 0x30, 0x63, 0xb4, 0x7d, 0xb0, 0xf4, 0xb3,
  0xc3, 0xb1, 0x7f, 0xb1, 0xa3, 0xb2, 0x35, 0xad, 0x9b, 0x2f, 0x7d, 0x35,
  0x8d, 0x2e, 0x97, 0xb4, 0x84, 0xb2, 0x9d, 0xb5, 0x23, 0x2e, 0xb6, 0x34,
  0xd8, 0x31, 0x38, 0xab, 0xae, 0x34, 0x01, 0x37, 0x5f, 0x2f, 0x36, 0xb4,
  0x97, 0x2d, 0x6b, 0xb1, 0x9d, 0x32, 0x72, 0x33, 0x77, 0xaf, 0xeb, 0xb1,
  0xbf, 0x31, 0x99, 0x2f, 0x0a, 0x2d, 0x63, 0x2f, 0xc9, 0xaf, 0x9a, 0x30,
  0x25, 0x23, 0x8f, 0x2c, 0xdf, 0x34, 0x88, 0x2f, 0x61, 0x2d, 0xa9, 0x2c,
  0xa8, 0x34, 0xfb, 0x35, 0x15, 0x2d, 0xad, 0xad, 0x06, 0xb4, 0x22, 0xb3,
  0xc8, 0xb5, 0x2a, 0x2d, 0x4d, 0xa6, 0xf6, 0xb2, 0x2a, 0xa1, 0xa9, 0xb4,
  0x5e, 0xb3, 0x7d, 0xb4, 0xe9, 0xb4, 0xba, 0xb6, 0x22, 0xb0, 0xe8, 0x2c,
  0x64, 0xb0, 0x37, 0x26, 0x6a, 0xb1, 0x44, 0x2c, 0x78, 0x31, 0x7b, 0xad,
  0xc9, 0x2e, 0xb0, 0xa4, 0xd1, 0xb3, 0xfe, 0x31, 0xf0, 0xad, 0x20, 0x2c,
  0x27, 0xb3, 0x02, 0x25, 0x9d, 0x33, 0xde, 0xaf, 0x6c, 0x29, 0x31, 0xb4,
  0xea, 0x23, 0xb0, 0x2d, 0x6f, 0xb4, 0xa5, 0xb2, 0x1a, 0xb0, 0x0a, 0x30,
  0xed, 0xb2, 0xa3, 0xac, 0x63, 0xb2, 0x1f, 0xb4, 0xa0, 0xa7, 0x80, 0x30,
  0xc1, 0x26, 0x26, 0x1e, 0x85, 0xac, 0x94, 0x2d, 0x7d, 0xaf, 0x2c, 0xa8,
  0xef, 0xb0, 0xf1, 0xb0, 0xa1, 0xa8, 0x38, 0x34, 0x15, 0xb4, 0xc1, 0xb1,
  0x7d, 0x33, 0xbb, 0xae, 0x85, 0x1a, 0x4d, 0xac, 0x5b, 0xac, 0x9a, 0x2f,
  0x54, 0x30, 0xbe, 0xad, 0x14, 0xa2, 0x17, 0xb3, 0xce, 0xb2, 0x42, 0xac,
  0x53, 0xb2, 0x1a, 0xa7, 0xee, 0xb3, 0x4a, 0x34, 0x69, 0x30, 0x13, 0xad,
  0x6e, 0x34, 0x8e, 0x30, 0x43, 0x33, 0xd7, 0xb3, 0x12, 0xb2, 0x4f, 0xb4,
  0x70, 0x32, 0xf3, 0xa8, 0x36, 0xad, 0xf3, 0x1e, 0xe8, 0x28, 0x86, 0x2e,
  0x22, 0xb4, 0xeb, 0xb2, 0x3e, 0xad, 0xb1, 0xb3, 0x8b, 0x32, 0x28, 0x2c,
  0x24, 0xaa, 0x60, 0xb0, 0xfb, 0x2e, 0xb8, 0x30, 0xd1, 0x2f, 0x44, 0xb2,
  0x13, 0x34, 0x17, 0xac, 0x9c, 0xb5, 0x98, 0x27, 0xa4, 0xac, 0x21, 0xad,
  0xe5, 0xb0, 0xc0, 0xb3, 0xdc, 0xaa, 0x13, 0xae, 0x85, 0x2c, 0x5e, 0xb4,
  0xa7, 0xac, 0x50, 0x29, 0x65, 0xaf, 0x55, 0x30, 0x72, 0xb4, 0xf6, 0x30,
  0x2c, 0xb1, 0xda, 0x33, 0x70, 0xa8, 0xab, 0x31, 0x16, 0xb4, 0xe7, 0xab,
  0x47, 0x34, 0xe0, 0xb2, 0x5e, 0x34, 0x07, 0x33, 0x12, 0x27, 0xaf, 0x23,
  0x55, 0x30, 0x4c, 0xb4, 0xde, 0x28, 0x78, 0xb0, 0xa0, 0xa6, 0x00, 0xb1,
  0xda, 0x2d, 0x60, 0x2d, 0x61, 0xad, 0x75, 0x30, 0x17, 0x33, 0x12, 0x2f,
  0xcf, 0x30, 0x99, 0xb2, 0x4d, 0xb0, 0x62, 0xaf, 0x8e, 0xac, 0x05, 0xb4,
  0x4d, 0x34, 0x13, 0x27, 0xf2, 0xac, 0x55, 0xb3, 0xce, 0xaf, 0x62, 0xb5,
  0x26, 0xb2, 0xfe, 0x2e, 0xc4, 0xa2, 0x44, 0x24, 0x4b, 0xad, 0x61, 0xa9,
  0x71, 0x33, 0xcd, 0xb3, 0x87, 0xb2, 0x58, 0xa2, 0x52, 0x32, 0x00, 0xb3,
  0x12, 0x2a, 0x53, 0x2c, 0x0a, 0x21, 0x3c, 0x2e, 0x5d, 0x32, 0xf0, 0x31,
  0x49, 0x34, 0x96, 0xb3, 0xe3, 0xb1, 0xce, 0xa4, 0x28, 0x30, 0x27, 0x30,
  0xad, 0x25, 0x7d, 0x2c, 0xdd, 0x33, 0x11, 0x33, 0x48, 0xb1, 0x57, 0xa2,
  0x56, 0xae, 0x50, 0x2e, 0x03, 0x97, 0x82, 0x30, 0xb4, 0xac, 0x63, 0x31,
  0x05, 0xb4, 0x94, 0x30, 0x3c, 0x2f, 0xd6, 0x33, 0xc0, 0x2b, 0x19, 0xb4,
  0x1c, 0xac, 0xc8, 0x2b, 0xa6, 0xb5, 0x5c, 0xb1, 0x20, 0x2c, 0x47, 0xaa,
  0x46, 0xab, 0x04, 0x33, 0xfa, 0xad, 0x25, 0xb2, 0xa4, 0xb0, 0xb1, 0x2a,
  0x2f, 0xb8, 0xe2, 0xb1, 0xf7, 0xb0, 0xb4, 0x32, 0x85, 0x2c, 0x33, 0x22,
  0x0b, 0xae, 0x19, 0x2c, 0xf8, 0xb0, 0x58, 0x35, 0xd7, 0xb5, 0xe5, 0xa1,
  0xc3, 0x9d, 0xf2, 0x28, 0x5b, 0x34, 0x85, 0xad, 0xc2, 0xac, 0x70, 0xaf,
  0xe9, 0xb3, 0x30, 0x34, 0x74, 0xa9, 0x49, 0xa9, 0x32, 0xb0, 0xa7, 0x31,
  0x94, 0x33, 0x04, 0x2b, 0xfe, 0x2c, 0x17, 0x2c, 0xfa, 0x8d, 0x6c, 0x1b,
  0x17, 0xb0, 0xe1, 0x28, 0x9e, 0xb0, 0x6e, 0x25, 0x61, 0x2d, 0xe4, 0x32,
  0x05, 0x33, 0xd1, 0x2e, 0x27, 0xad, 0xfb, 0x35, 0xf8, 0x34, 0xd3, 0xae,
  0xe7, 0x30, 0xc5, 0xab, 0xac, 0xf7, 0xff, 0xff, 0xb0, 0xf7, 0xff, 0xff,
  0x0f, 0x00, 0x00, 0x00, 0x4d, 0x4c, 0x49, 0x52, 0x20, 0x43, 0x6f, 0x6e,
  0x76, 0x65, 0x72, 0x74, 0x65, 0x64, 0x2e, 0x00, 0x01, 0x00, 0x00, 0x00,
  0x14, 0x00, 0x00, 0x00, 0x00, 0x00, 0x0e, 0x00, 0x18, 0x00, 0x14, 0x00,
  0x10, 0x00, 0x0c, 0x00, 0x08, 0x00, 0x04, 0x00, 0x0e, 0x00, 0x00, 0x00,
  0x14, 0x00, 0x00, 0x00, 0x1c, 0x00, 0x00, 0x00, 0xec, 0x01, 0x00, 0x00,
  0xf0, 0x01, 0x00, 0x00, 0xf4, 0x01, 0x00, 0x00, 0x04, 0x00, 0x00, 0x00,
  0x6d, 0x61, 0x69, 0x6e, 0x00, 0x00, 0x00, 0x00, 0x0a, 0x00, 0x00, 0x00,
  0xb4, 0x01, 0x00, 0x00, 0x88, 0x01, 0x00, 0x00, 0x68, 0x01, 0x00, 0x00,
  0x48, 0x01, 0x00, 0x00, 0x28, 0x01, 0x00, 0x00, 0x08, 0x01, 0x00, 0x00,
  0xc4, 0x00, 0x00, 0x00, 0x78, 0x00, 0x00, 0x00, 0x40, 0x00, 0x00, 0x00,
  0x04, 0x00, 0x00, 0x00, 0x5a, 0xff, 0xff, 0xff, 0x1c, 0x00, 0x00, 0x00,
  0x00, 0x00, 0x00, 0x09, 0x1c, 0x00, 0x00, 0x00, 0x20, 0x00, 0x00, 0x00,
  0x02, 0x00, 0x00, 0x00, 0x00, 0x00, 0x06, 0x00, 0x08, 0x00, 0x04, 0x00,
  0x06, 0x00, 0x00, 0x00, 0x00, 0x00, 0x80, 0x3f, 0x01, 0x00, 0x00, 0x00,
  0x10, 0x00, 0x00, 0x00, 0x01, 0x00, 0x00, 0x00, 0x0f, 0x00, 0x00, 0x00,
  0x92, 0xff, 0xff, 0xff, 0x14, 0x00, 0x00, 0x00, 0x00, 0x00, 0x00, 0x08,
  0x10, 0x00, 0x00, 0x00, 0x14, 0x00, 0x00, 0x00, 0x01, 0x00, 0x00, 0x00,
  0x80, 0xf8, 0xff, 0xff, 0x01, 0x00, 0x00, 0x00, 0x0f, 0x00, 0x00, 0x00,
  0x03, 0x00, 0x00, 0x00, 0x0e, 0x00, 0x00, 0x00, 0x09, 0x00, 0x00, 0x00,
  0x0a, 0x00, 0x00, 0x00, 0xc6, 0xff, 0xff, 0xff, 0x14, 0x00, 0x00, 0x00,
  0x00, 0x00, 0x00, 0x08, 0x14, 0x00, 0x00, 0x00, 0x18, 0x00, 0x00, 0x00,
  0x01, 0x00, 0x00, 0x00, 0xb6, 0xff, 0xff, 0xff, 0x00, 0x00, 0x00, 0x01,
  0x01, 0x00, 0x00, 0x00, 0x0e, 0x00, 0x00, 0x00, 0x03, 0x00, 0x00, 0x00,
  0x0d, 0x00, 0x00, 0x00, 0x07, 0x00, 0x00, 0x00, 0x08, 0x00, 0x00, 0x00,
  0x00, 0x00, 0x0e, 0x00, 0x1a, 0x00, 0x14, 0x00, 0x10, 0x00, 0x0c, 0x00,
  0x0b, 0x00, 0x04, 0x00, 0x0e, 0x00, 0x00, 0x00, 0x1c, 0x00, 0x00, 0x00,
  0x00, 0x00, 0x00, 0x08, 0x1c, 0x00, 0x00, 0x00, 0x20, 0x00, 0x00, 0x00,
  0x01, 0x00, 0x00, 0x00, 0x00, 0x00, 0x06, 0x00, 0x08, 0x00, 0x07, 0x00,
  0x06, 0x00, 0x00, 0x00, 0x00, 0x00, 0x00, 0x01, 0x01, 0x00, 0x00, 0x00,
  0x0d, 0x00, 0x00, 0x00, 0x03, 0x00, 0x00, 0x00, 0x00, 0x00, 0x00, 0x00,
  0x0c, 0x00, 0x00, 0x00, 0x0b, 0x00, 0x00, 0x00, 0x72, 0xff, 0xff, 0xff,
  0x08, 0x00, 0x00, 0x00, 0x0c, 0x00, 0x00, 0x00, 0x01, 0x00, 0x00, 0x00,
  0x0c, 0x00, 0x00, 0x00, 0x01, 0x00, 0x00, 0x00, 0x01, 0x00, 0x00, 0x00,
  0x8e, 0xff, 0xff, 0xff, 0x08, 0x00, 0x00, 0x00, 0x0c, 0x00, 0x00, 0x00,
  0x01, 0x00, 0x00, 0x00, 0x0b, 0x00, 0x00, 0x00, 0x01, 0x00, 0x00, 0x00,
  0x02, 0x00, 0x00, 0x00, 0xaa, 0xff, 0xff, 0xff, 0x08, 0x00, 0x00, 0x00,
  0x0c, 0x00, 0x00, 0x00, 0x01, 0x00, 0x00, 0x00, 0x0a, 0x00, 0x00, 0x00,
  0x01, 0x00, 0x00, 0x00, 0x03, 0x00, 0x00, 0x00, 0xc6, 0xff, 0xff, 0xff,
  0x08, 0x00, 0x00, 0x00, 0x0c, 0x00, 0x00, 0x00, 0x01, 0x00, 0x00, 0x00,
  0x09, 0x00, 0x00, 0x00, 0x01, 0x00, 0x00, 0x00, 0x04, 0x00, 0x00, 0x00,
  0xe2, 0xff, 0xff, 0xff, 0x08, 0x00, 0x00, 0x00, 0x0c, 0x00, 0x00, 0x00,
  0x01, 0x00, 0x00, 0x00, 0x08, 0x00, 0x00, 0x00, 0x01, 0x00, 0x00, 0x00,
  0x05, 0x00, 0x00, 0x00, 0x00, 0x00, 0x0a, 0x00, 0x0c, 0x00, 0x00, 0x00,
  0x08, 0x00, 0x04, 0x00, 0x0a, 0x00, 0x00, 0x00, 0x08, 0x00, 0x00, 0x00,
  0x0c, 0x00, 0x00, 0x00, 0x01, 0x00, 0x00, 0x00, 0x07, 0x00, 0x00, 0x00,
  0x01, 0x00, 0x00, 0x00, 0x06, 0x00, 0x00, 0x00, 0x01, 0x00, 0x00, 0x00,
  0x10, 0x00, 0x00, 0x00, 0x01, 0x00, 0x00, 0x00, 0x00, 0x00, 0x00, 0x00,
  0x11, 0x00, 0x00, 0x00, 0xec, 0x05, 0x00, 0x00, 0x90, 0x05, 0x00, 0x00,
  0x38, 0x05, 0x00, 0x00, 0xf8, 0x04, 0x00, 0x00, 0xb4, 0x04, 0x00, 0x00,
  0x74, 0x04, 0x00, 0x00, 0x30, 0x04, 0x00, 0x00, 0xf0, 0x03, 0x00, 0x00,
  0x9c, 0x03, 0x00, 0x00, 0x5c, 0x03, 0x00, 0x00, 0x20, 0x03, 0x00, 0x00,
  0xe4, 0x02, 0x00, 0x00, 0x94, 0x02, 0x00, 0x00, 0xf4, 0x01, 0x00, 0x00,
  0xe4, 0x00, 0x00, 0x00, 0x60, 0x00, 0x00, 0x00, 0x04, 0x00, 0x00, 0x00,
  0x6e, 0xfa, 0xff, 0xff, 0x00, 0x00, 0x00, 0x01, 0x14, 0x00, 0x00, 0x00,
  0x1c, 0x00, 0x00, 0x00, 0x1c, 0x00, 0x00, 0x00, 0x11, 0x00, 0x00, 0x00,
  0x34, 0x00, 0x00, 0x00, 0x02, 0x00, 0x00, 0x00, 0xff, 0xff, 0xff, 0xff,
  0x06, 0x00, 0x00, 0x00, 0x58, 0xfa, 0xff, 0xff, 0x1b, 0x00, 0x00, 0x00,
  0x53, 0x74, 0x61, 0x74, 0x65, 0x66, 0x75, 0x6c, 0x50, 0x61, 0x72, 0x74,
  0x69, 0x74, 0x69, 0x6f, 0x6e, 0x65, 0x64, 0x43, 0x61, 0x6c, 0x6c, 0x5f,
  0x31, 0x3a, 0x30, 0x00, 0x02, 0x00, 0x00, 0x00, 0x01, 0x00, 0x00, 0x00,
  0x06, 0x00, 0x00, 0x00, 0xc6, 0xfa, 0xff, 0xff, 0x00, 0x00, 0x00, 0x01,
  0x14, 0x00, 0x00, 0x00, 0x1c, 0x00, 0x00, 0x00, 0x1c, 0x00, 0x00, 0x00,
  0x10, 0x00, 0x00, 0x00, 0x5c, 0x00, 0x00, 0x00, 0x02, 0x00, 0x00, 0x00,
  0xff, 0xff, 0xff, 0xff, 0x06, 0x00, 0x00, 0x00, 0xb0, 0xfa, 0xff, 0xff,
  0x40, 0x00, 0x00, 0x00, 0x73, 0x65, 0x71, 0x75, 0x65, 0x6e, 0x74, 0x69,
  0x61, 0x6c, 0x5f, 0x31, 0x5f, 0x31, 0x2f, 0x64, 0x65, 0x6e, 0x73, 0x65,
  0x5f, 0x35, 0x5f, 0x31, 0x2f, 0x4d, 0x61, 0x74, 0x4d, 0x75, 0x6c, 0x3b,
  0x73, 0x65, 0x71, 0x75, 0x65, 0x6e, 0x74, 0x69, 0x61, 0x6c, 0x5f, 0x31,
  0x5f, 0x31, 0x2f, 0x64, 0x65, 0x6e, 0x73, 0x65, 0x5f, 0x35, 0x5f, 0x31,
  0x2f, 0x42, 0x69, 0x61, 0x73, 0x41, 0x64, 0x64, 0x00, 0x00, 0x00, 0x00,
  0x02, 0x00, 0x00, 0x00, 0x01, 0x00, 0x00, 0x00, 0x06, 0x00, 0x00, 0x00,
  0x46, 0xfb, 0xff, 0xff, 0x00, 0x00, 0x00, 0x01, 0x14, 0x00, 0x00, 0x00,
  0x1c, 0x00, 0x00, 0x00, 0x1c, 0x00, 0x00, 0x00, 0x0f, 0x00, 0x00, 0x00,
  0xe8, 0x00, 0x00, 0x00, 0x02, 0x00, 0x00, 0x00, 0xff, 0xff, 0xff, 0xff,
  0x20, 0x00, 0x00, 0x00, 0x30, 0xfb, 0xff, 0xff, 0xcc, 0x00, 0x00, 0x00,
  0x73, 0x65, 0x71, 0x75, 0x65, 0x6e, 0x74, 0x69, 0x61, 0x6c, 0x5f, 0x31,
  0x5f, 0x31, 0x2f, 0x62, 0x61, 0x74, 0x63, 0x68, 0x5f, 0x6e, 0x6f, 0x72,
  0x6d, 0x61, 0x6c, 0x69, 0x7a, 0x61, 0x74, 0x69, 0x6f, 0x6e, 0x5f, 0x31,
  0x5f, 0x31, 0x2f, 0x62, 0x61, 0x74, 0x63, 0x68, 0x6e, 0x6f, 0x72, 0x6d,
  0x2f, 0x6d, 0x75, 0x6c, 0x5f, 0x31, 0x3b, 0x73, 0x65, 0x71, 0x75, 0x65,
  0x6e, 0x74, 0x69, 0x61, 0x6c, 0x5f, 0x31, 0x5f, 0x31, 0x2f, 0x62, 0x61,
  0x74, 0x63, 0x68, 0x5f, 0x6e, 0x6f, 0x72, 0x6d, 0x61, 0x6c, 0x69, 0x7a,
  0x61, 0x74, 0x69, 0x6f, 0x6e, 0x5f, 0x31, 0x5f, 0x31, 0x2f, 0x62, 0x61,
  0x74, 0x63, 0x68, 0x6e, 0x6f, 0x72, 0x6d, 0x2f, 0x61, 0x64, 0x64, 0x5f,
  0x31, 0x3b, 0x73, 0x65, 0x71, 0x75, 0x65, 0x6e, 0x74, 0x69, 0x61, 0x6c,
  0x5f, 0x31, 0x5f, 0x31, 0x2f, 0x64, 0x65, 0x6e, 0x73, 0x65, 0x5f, 0x34,
  0x5f, 0x31, 0x2f, 0x4d, 0x61, 0x74, 0x4d, 0x75, 0x6c, 0x3b, 0x73, 0x65,
  0x71, 0x75, 0x65, 0x6e, 0x74, 0x69, 0x61, 0x6c, 0x5f, 0x31, 0x5f, 0x31,
  0x2f, 0x64, 0x65, 0x6e, 0x73, 0x65, 0x5f, 0x34, 0x5f, 0x31, 0x2f, 0x52,
  0x65, 0x6c, 0x75, 0x3b, 0x73, 0x65, 0x71, 0x75, 0x65, 0x6e, 0x74, 0x69,
  0x61, 0x6c, 0x5f, 0x31, 0x5f, 0x31, 0x2f, 0x64, 0x65, 0x6e, 0x73, 0x65,
  0x5f, 0x34, 0x5f, 0x31, 0x2f, 0x42, 0x69, 0x61, 0x73, 0x41, 0x64, 0x64,
  0x00, 0x00, 0x00, 0x00, 0x02, 0x00, 0x00, 0x00, 0x01, 0x00, 0x00, 0x00,
  0x20, 0x00, 0x00, 0x00, 0x52, 0xfc, 0xff, 0xff, 0x00, 0x00, 0x00, 0x01,
  0x14, 0x00, 0x00, 0x00, 0x1c, 0x00, 0x00, 0x00, 0x1c, 0x00, 0x00, 0x00,
  0x0e, 0x00, 0x00, 0x00, 0x78, 0x00, 0x00, 0x00, 0x02, 0x00, 0x00, 0x00,
  0xff, 0xff, 0xff, 0xff, 0x40, 0x00, 0x00, 0x00, 0x3c, 0xfc, 0xff, 0xff,
  0x5e, 0x00, 0x00, 0x00, 0x73, 0x65, 0x71, 0x75, 0x65, 0x6e, 0x74, 0x69,
  0x61, 0x6c, 0x5f, 0x31, 0x5f, 0x31, 0x2f, 0x64, 0x65, 0x6e, 0x73, 0x65,
  0x5f, 0x33, 0x5f, 0x31, 0x2f, 0x4d, 0x61, 0x74, 0x4d, 0x75, 0x6c, 0x3b,
  0x73, 0x65, 0x71, 0x75, 0x65, 0x6e, 0x74, 0x69, 0x61, 0x6c, 0x5f, 0x31,
  0x5f, 0x31, 0x2f, 0x64, 0x65, 0x6e, 0x73, 0x65, 0x5f, 0x33, 0x5f, 0x31,
  0x2f, 0x52, 0x65, 0x6c, 0x75, 0x3b, 0x73, 0x65, 0x71, 0x75, 0x65, 0x6e,
  0x74, 0x69, 0x61, 0x6c, 0x5f, 0x31, 0x5f, 0x31, 0x2f, 0x64, 0x65, 0x6e,
  0x73, 0x65, 0x5f, 0x33, 0x5f, 0x31, 0x2f, 0x42, 0x69, 0x61, 0x73, 0x41,
  0x64, 0x64, 0x00, 0x00, 0x02, 0x00, 0x00, 0x00, 0x01, 0x00, 0x00, 0x00,
  0x40, 0x00, 0x00, 0x00, 0xce, 0xfe, 0xff, 0xff, 0x00, 0x00, 0x00, 0x01,
  0x10, 0x00, 0x00, 0x00, 0x10, 0x00, 0x00, 0x00, 0x0d, 0x00, 0x00, 0x00,
  0x2c, 0x00, 0x00, 0x00, 0xc8, 0xfc, 0xff, 0xff, 0x1f, 0x00, 0x00, 0x00,
  0x73, 0x65, 0x71, 0x75, 0x65, 0x6e, 0x74, 0x69, 0x61, 0x6c, 0x5f, 0x31,
  0x5f, 0x31, 0x2f, 0x64, 0x65, 0x6e, 0x73, 0x65, 0x5f, 0x33, 0x5f, 0x31,
  0x2f, 0x4d, 0x61, 0x74, 0x4d, 0x75, 0x6c, 0x00, 0x02, 0x00, 0x00, 0x00,
  0x40, 0x00, 0x00, 0x00, 0x0d, 0x00, 0x00, 0x00, 0x1a, 0xff, 0xff, 0xff,
  0x00, 0x00, 0x00, 0x01, 0x10, 0x00, 0x00, 0x00, 0x10, 0x00, 0x00, 0x00,
  0x0c, 0x00, 0x00, 0x00, 0x1c, 0x00, 0x00, 0x00, 0x14, 0xfd, 0xff, 0xff,
  0x0f, 0x00, 0x00, 0x00, 0x74, 0x66, 0x6c, 0x2e, 0x64, 0x65, 0x71, 0x75,
  0x61, 0x6e, 0x74, 0x69, 0x7a, 0x65, 0x34, 0x00, 0x01, 0x00, 0x00, 0x00,
  0x40, 0x00, 0x00, 0x00, 0x52, 0xff, 0xff, 0xff, 0x00, 0x00, 0x00, 0x01,
  0x10, 0x00, 0x00, 0x00, 0x10, 0x00, 0x00, 0x00, 0x0b, 0x00, 0x00, 0x00,
  0x1c, 0x00, 0x00, 0x00, 0x4c, 0xfd, 0xff, 0xff, 0x0f, 0x00, 0x00, 0x00,
  0x74, 0x66, 0x6c, 0x2e, 0x64, 0x65, 0x71, 0x75, 0x61, 0x6e, 0x74, 0x69,
  0x7a, 0x65, 0x33, 0x00, 0x01, 0x00, 0x00, 0x00, 0x06, 0x00, 0x00, 0x00,
  0x8a, 0xff, 0xff, 0xff, 0x00, 0x00, 0x00, 0x01, 0x10, 0x00, 0x00, 0x00,
  0x10, 0x00, 0x00, 0x00, 0x0a, 0x00, 0x00, 0x00, 0x1c, 0x00, 0x00, 0x00,
  0x84, 0xfd, 0xff, 0xff, 0x0f, 0x00, 0x00, 0x00, 0x74, 0x66, 0x6c, 0x2e,
  0x64, 0x65, 0x71, 0x75, 0x61, 0x6e, 0x74, 0x69, 0x7a, 0x65, 0x32, 0x00,
  0x02, 0x00, 0x00, 0x00, 0x06, 0x00, 0x00, 0x00, 0x20, 0x00, 0x00, 0x00,
  0xc6, 0xff, 0xff, 0xff, 0x00, 0x00, 0x00, 0x01, 0x10, 0x00, 0x00, 0x00,
  0x10, 0x00, 0x00, 0x00, 0x09, 0x00, 0x00, 0x00, 0x1c, 0x00, 0x00, 0x00,
  0xc0, 0xfd, 0xff, 0xff, 0x0f, 0x00, 0x00, 0x00, 0x74, 0x66, 0x6c, 0x2e,
  0x64, 0x65, 0x71, 0x75, 0x61, 0x6e, 0x74, 0x69, 0x7a, 0x65, 0x31, 0x00,
  0x01, 0x00, 0x00, 0x00, 0x20, 0x00, 0x00, 0x00, 0x00, 0x00, 0x16, 0x00,
  0x18, 0x00, 0x14, 0x00, 0x00, 0x00, 0x10, 0x00, 0x0c, 0x00, 0x08, 0x00,
  0x00, 0x00, 0x00, 0x00, 0x00, 0x00, 0x07, 0x00, 0x16, 0x00, 0x00, 0x00,
  0x00, 0x00, 0x00, 0x01, 0x10, 0x00, 0x00, 0x00, 0x10, 0x00, 0x00, 0x00,
  0x08, 0x00, 0x00, 0x00, 0x1c, 0x00, 0x00, 0x00, 0x10, 0xfe, 0xff, 0xff,
  0x0e, 0x00, 0x00, 0x00, 0x74, 0x66, 0x6c, 0x2e, 0x64, 0x65, 0x71, 0x75,
  0x61, 0x6e, 0x74, 0x69, 0x7a, 0x65, 0x00, 0x00, 0x02, 0x00, 0x00, 0x00,
  0x20, 0x00, 0x00, 0x00, 0x40, 0x00, 0x00, 0x00, 0xca, 0xfe, 0xff, 0xff,
  0x00, 0x00, 0x00, 0x01, 0x14, 0x00, 0x00, 0x00, 0x14, 0x00, 0x00, 0x00,
  0x07, 0x00, 0x00, 0x00, 0x00, 0x00, 0x00, 0x01, 0x1c, 0x00, 0x00, 0x00,
  0x50, 0xfe, 0xff, 0xff, 0x0f, 0x00, 0x00, 0x00, 0x61, 0x72, 0x69, 0x74,
  0x68, 0x2e, 0x63, 0x6f, 0x6e, 0x73, 0x74, 0x61, 0x6e, 0x74, 0x35, 0x00,
  0x02, 0x00, 0x00, 0x00, 0x20, 0x00, 0x00, 0x00, 0x40, 0x00, 0x00, 0x00,
  0x0a, 0xff, 0xff, 0xff, 0x00, 0x00, 0x00, 0x01, 0x14, 0x00, 0x00, 0x00,
  0x14, 0x00, 0x00, 0x00, 0x06, 0x00, 0x00, 0x00, 0x00, 0x00, 0x00, 0x01,
  0x1c, 0x00, 0x00, 0x00, 0x90, 0xfe, 0xff, 0xff, 0x0f, 0x00, 0x00, 0x00,
  0x61, 0x72, 0x69, 0x74, 0x68, 0x2e, 0x63, 0x6f, 0x6e, 0x73, 0x74, 0x61,
  0x6e, 0x74, 0x34, 0x00, 0x01, 0x00, 0x00, 0x00, 0x20, 0x00, 0x00, 0x00,
  0x46, 0xff, 0xff, 0xff, 0x00, 0x00, 0x00, 0x01, 0x14, 0x00, 0x00, 0x00,
  0x14, 0x00, 0x00, 0x00, 0x05, 0x00, 0x00, 0x00, 0x00, 0x00, 0x00, 0x01,
  0x1c, 0x00, 0x00, 0x00, 0xcc, 0xfe, 0xff, 0xff, 0x0f, 0x00, 0x00, 0x00,
  0x61, 0x72, 0x69, 0x74, 0x68, 0x2e, 0x63, 0x6f, 0x6e, 0x73, 0x74, 0x61,
  0x6e, 0x74, 0x33, 0x00, 0x02, 0x00, 0x00, 0x00, 0x06, 0x00, 0x00, 0x00,
  0x20, 0x00, 0x00, 0x00, 0x86, 0xff, 0xff, 0xff, 0x00, 0x00, 0x00, 0x01,
  0x14, 0x00, 0x00, 0x00, 0x14, 0x00, 0x00, 0x00, 0x04, 0x00, 0x00, 0x00,
  0x00, 0x00, 0x00, 0x01, 0x1c, 0x00, 0x00, 0x00, 0x0c, 0xff, 0xff, 0xff,
  0x0f, 0x00, 0x00, 0x00, 0x61, 0x72, 0x69, 0x74, 0x68, 0x2e, 0x63, 0x6f,
  0x6e, 0x73, 0x74, 0x61, 0x6e, 0x74, 0x32, 0x00, 0x01, 0x00, 0x00, 0x00,
  0x06, 0x00, 0x00, 0x00, 0xc2, 0xff, 0xff, 0xff, 0x00, 0x00, 0x00, 0x01,
  0x14, 0x00, 0x00, 0x00, 0x14, 0x00, 0x00, 0x00, 0x03, 0x00, 0x00, 0x00,
  0x00, 0x00, 0x00, 0x01, 0x1c, 0x00, 0x00, 0x00, 0x48, 0xff, 0xff, 0xff,
  0x0f, 0x00, 0x00, 0x00, 0x61, 0x72, 0x69, 0x74, 0x68, 0x2e, 0x63, 0x6f,
  0x6e, 0x73, 0x74, 0x61, 0x6e, 0x74, 0x31, 0x00, 0x01, 0x00, 0x00, 0x00,
  0x40, 0x00, 0x00, 0x00, 0x00, 0x00, 0x16, 0x00, 0x1c, 0x00, 0x18, 0x00,
  0x17, 0x00, 0x10, 0x00, 0x0c, 0x00, 0x08, 0x00, 0x00, 0x00, 0x00, 0x00,
  0x00, 0x00, 0x07, 0x00, 0x16, 0x00, 0x00, 0x00, 0x00, 0x00, 0x00, 0x01,
  0x14, 0x00, 0x00, 0x00, 0x14, 0x00, 0x00, 0x00, 0x02, 0x00, 0x00, 0x00,
  0x00, 0x00, 0x00, 0x01, 0x1c, 0x00, 0x00, 0x00, 0x9c, 0xff, 0xff, 0xff,
  0x0e, 0x00, 0x00, 0x00, 0x61, 0x72, 0x69, 0x74, 0x68, 0x2e, 0x63, 0x6f,
  0x6e, 0x73, 0x74, 0x61, 0x6e, 0x74, 0x00, 0x00, 0x02, 0x00, 0x00, 0x00,
  0x40, 0x00, 0x00, 0x00, 0x0d, 0x00, 0x00, 0x00, 0x00, 0x00, 0x16, 0x00,
  0x1c, 0x00, 0x18, 0x00, 0x00, 0x00, 0x14, 0x00, 0x10, 0x00, 0x0c, 0x00,
  0x00, 0x00, 0x00, 0x00, 0x08, 0x00, 0x07, 0x00, 0x16, 0x00, 0x00, 0x00,
  0x00, 0x00, 0x00, 0x01, 0x14, 0x00, 0x00, 0x00, 0x20, 0x00, 0x00, 0x00,
  0x20, 0x00, 0x00, 0x00, 0x01, 0x00, 0x00, 0x00, 0x40, 0x00, 0x00, 0x00,
  0x02, 0x00, 0x00, 0x00, 0xff, 0xff, 0xff, 0xff, 0x0d, 0x00, 0x00, 0x00,
  0x04, 0x00, 0x04, 0x00, 0x04, 0x00, 0x00, 0x00, 0x20, 0x00, 0x00, 0x00,
  0x73, 0x65, 0x72, 0x76, 0x69, 0x6e, 0x67, 0x5f, 0x64, 0x65, 0x66, 0x61,
  0x75, 0x6c, 0x74, 0x5f, 0x6b, 0x65, 0x72, 0x61, 0x73, 0x5f, 0x74, 0x65,
  0x6e, 0x73, 0x6f, 0x72, 0x5f, 0x36, 0x3a, 0x30, 0x00, 0x00, 0x00, 0x00,
  0x02, 0x00, 0x00, 0x00, 0x01, 0x00, 0x00, 0x00, 0x0d, 0x00, 0x00, 0x00,
  0x03, 0x00, 0x00, 0x00, 0x3c, 0x00, 0x00, 0x00, 0x20, 0x00, 0x00, 0x00,
  0x04, 0x00, 0x00, 0x00, 0xf4, 0xff, 0xff, 0xff, 0x19, 0x00, 0x00, 0x00,
  0x00, 0x00, 0x00, 0x19, 0x0c, 0x00, 0x0c, 0x00, 0x0b, 0x00, 0x00, 0x00,
  0x00, 0x00, 0x04, 0x00, 0x0c, 0x00, 0x00, 0x00, 0x09, 0x00, 0x00, 0x00,
  0x00, 0x00, 0x00, 0x09, 0x0c, 0x00, 0x10, 0x00, 0x0f, 0x00, 0x00, 0x00,
  0x08, 0x00, 0x04, 0x00, 0x0c, 0x00, 0x00, 0x00, 0x06, 0x00, 0x00, 0x00,
  0x03, 0x00, 0x00, 0x00, 0x00, 0x00, 0x00, 0x06
};
unsigned int my_mean_mfcc_classifier_tflite_len = 9308;
